#include "model.h"

const unsigned char g_model[] = {
  0x1c, 0x00, 0x00, 0x00, 0x54, 0x46, 0x4c, 0x33, 0x14, 0x00, 0x20, 0x00,
  0x1c, 0x00, 0x18, 0x00, 0x14, 0x00, 0x10, 0x00, 0x0c, 0x00, 0x00, 0x00,
  0x08, 0x00, 0x04, 0x00, 0x14, 0x00, 0x00, 0x00, 0x1c, 0x00, 0x00, 0x00,
  0x8c, 0x00, 0x00, 0x00, 0x0c, 0x01, 0x00, 0x00, 0xb8, 0x19, 0x00, 0x00,
  0xc8, 0x19, 0x00, 0x00, 0xb0, 0x28, 0x00, 0x00, 0x03, 0x00, 0x00, 0x00,
  0x01, 0x00, 0x00, 0x00, 0x04, 0x00, 0x00, 0x00, 0x16, 0xe5, 0xff, 0xff,
  0x0c, 0x00, 0x00, 0x00, 0x1c, 0x00, 0x00, 0x00, 0x3c, 0x00, 0x00, 0x00,
  0x0f, 0x00, 0x00, 0x00, 0x73, 0x65, 0x72, 0x76, 0x69, 0x6e, 0x67, 0x5f,
  0x64, 0x65, 0x66, 0x61, 0x75, 0x6c, 0x74, 0x00, 0x01, 0x00, 0x00, 0x00,
  0x04, 0x00, 0x00, 0x00, 0x68, 0xff, 0xff, 0xff, 0x11, 0x00, 0x00, 0x00,
  0x04, 0x00, 0x00, 0x00, 0x08, 0x00, 0x00, 0x00, 0x6f, 0x75, 0x74, 0x70,
  0x75, 0x74, 0x5f, 0x30, 0x00, 0x00, 0x00, 0x00, 0x01, 0x00, 0x00, 0x00,
  0x04, 0x00, 0x00, 0x00, 0x1e, 0xe5, 0xff, 0xff, 0x04, 0x00, 0x00, 0x00,
  0x0c, 0x00, 0x00, 0x00, 0x6b, 0x65, 0x72, 0x61, 0x73, 0x5f, 0x74, 0x65,
  0x6e, 0x73, 0x6f, 0x72, 0x00, 0x00, 0x00, 0x00, 0x03, 0x00, 0x00, 0x00,
  0x5c, 0x00, 0x00, 0x00, 0x2c, 0x00, 0x00, 0x00, 0x04, 0x00, 0x00, 0x00,
  0xb8, 0xff, 0xff, 0xff, 0x15, 0x00, 0x00, 0x00, 0x04, 0x00, 0x00, 0x00,
  0x13, 0x00, 0x00, 0x00, 0x43, 0x4f, 0x4e, 0x56, 0x45, 0x52, 0x53, 0x49,
  0x4f, 0x4e, 0x5f, 0x4d, 0x45, 0x54, 0x41, 0x44, 0x41, 0x54, 0x41, 0x00,
  0xdc, 0xff, 0xff, 0xff, 0x14, 0x00, 0x00, 0x00, 0x04, 0x00, 0x00, 0x00,
  0x13, 0x00, 0x00, 0x00, 0x6d, 0x69, 0x6e, 0x5f, 0x72, 0x75, 0x6e, 0x74,
  0x69, 0x6d, 0x65, 0x5f, 0x76, 0x65, 0x72, 0x73, 0x69, 0x6f, 0x6e, 0x00,
  0x08, 0x00, 0x0c, 0x00, 0x08, 0x00, 0x04, 0x00, 0x08, 0x00, 0x00, 0x00,
  0x13, 0x00, 0x00, 0x00, 0x04, 0x00, 0x00, 0x00, 0x13, 0x00, 0x00, 0x00,
  0x6d, 0x69, 0x6e, 0x5f, 0x72, 0x75, 0x6e, 0x74, 0x69, 0x6d, 0x65, 0x5f,
  0x76, 0x65, 0x72, 0x73, 0x69, 0x6f, 0x6e, 0x00, 0x16, 0x00, 0x00, 0x00,
  0xa8, 0x18, 0x00, 0x00, 0xa0, 0x18, 0x00, 0x00, 0x8c, 0x18, 0x00, 0x00,
  0x78, 0x18, 0x00, 0x00, 0x64, 0x18, 0x00, 0x00, 0x44, 0x18, 0x00, 0x00,
  0xf4, 0x17, 0x00, 0x00, 0xa4, 0x17, 0x00, 0x00, 0x94, 0x15, 0x00, 0x00,
  0x04, 0x15, 0x00, 0x00, 0xf4, 0x00, 0x00, 0x00, 0xec, 0x00, 0x00, 0x00,
  0xe4, 0x00, 0x00, 0x00, 0xdc, 0x00, 0x00, 0x00, 0xd4, 0x00, 0x00, 0x00,
  0xcc, 0x00, 0x00, 0x00, 0xc4, 0x00, 0x00, 0x00, 0xbc, 0x00, 0x00, 0x00,
  0xb4, 0x00, 0x00, 0x00, 0x94, 0x00, 0x00, 0x00, 0x74, 0x00, 0x00, 0x00,
  0x04, 0x00, 0x00, 0x00, 0x1a, 0xe6, 0xff, 0xff, 0x04, 0x00, 0x00, 0x00,
  0x60, 0x00, 0x00, 0x00, 0x0c, 0x00, 0x00, 0x00, 0x08, 0x00, 0x0e, 0x00,
  0x08, 0x00, 0x04, 0x00, 0x08, 0x00, 0x00, 0x00, 0x10, 0x00, 0x00, 0x00,
  0x28, 0x00, 0x00, 0x00, 0x00, 0x00, 0x06, 0x00, 0x08, 0x00, 0x04, 0x00,
  0x06, 0x00, 0x00, 0x00, 0x04, 0x00, 0x00, 0x00, 0x01, 0x00, 0x00, 0x00,
  0xeb, 0x03, 0x00, 0x00, 0x0c, 0x00, 0x18, 0x00, 0x14, 0x00, 0x10, 0x00,
  0x0c, 0x00, 0x04, 0x00, 0x0c, 0x00, 0x00, 0x00, 0x64, 0x83, 0xea, 0x5b,
  0xf9, 0xab, 0x87, 0xb3, 0x02, 0x00, 0x00, 0x00, 0x02, 0x00, 0x00, 0x00,
  0x04, 0x00, 0x00, 0x00, 0x06, 0x00, 0x00, 0x00, 0x32, 0x2e, 0x31, 0x38,
  0x2e, 0x30, 0x00, 0x00, 0x86, 0xe6, 0xff, 0xff, 0x04, 0x00, 0x00, 0x00,
  0x10, 0x00, 0x00, 0x00, 0x00, 0x00, 0x00, 0x00, 0x00, 0x00, 0x00, 0x00,
  0x00, 0x00, 0x00, 0x00, 0x00, 0x00, 0x00, 0x00, 0xa2, 0xe6, 0xff, 0xff,
  0x04, 0x00, 0x00, 0x00, 0x10, 0x00, 0x00, 0x00, 0x31, 0x2e, 0x31, 0x34,
  0x2e, 0x30, 0x00, 0x00, 0x00, 0x00, 0x00, 0x00, 0x00, 0x00, 0x00, 0x00,
  0x1c, 0xda, 0xff, 0xff, 0x20, 0xda, 0xff, 0xff, 0x24, 0xda, 0xff, 0xff,
  0x28, 0xda, 0xff, 0xff, 0x2c, 0xda, 0xff, 0xff, 0x30, 0xda, 0xff, 0xff,
  0x34, 0xda, 0xff, 0xff, 0x38, 0xda, 0xff, 0xff, 0xde, 0xe6, 0xff, 0xff,
  0x04, 0x00, 0x00, 0x00, 0x00, 0x14, 0x00, 0x00, 0x36, 0xc4, 0x08, 0x0b,
  0x0a, 0xf2, 0x05, 0xda, 0x06, 0x2a, 0xf4, 0x26, 0x01, 0x34, 0x4a, 0xc3,
  0x1a, 0xd6, 0x1a, 0xda, 0x23, 0xea, 0x2c, 0xd0, 0x04, 0x08, 0x2a, 0xcf,
  0x1b, 0xee, 0x67, 0xa6, 0xe7, 0xea, 0x15, 0xc6, 0x0c, 0xc8, 0x3a, 0xd9,
  0xba, 0xda, 0x3c, 0xef, 0xcc, 0x0a, 0x06, 0x1d, 0xce, 0xd9, 0xfb, 0xf2,
  0xba, 0xd3, 0xee, 0xdc, 0xa6, 0xd3, 0xe9, 0x39, 0xec, 0xd0, 0x52, 0x02,
  0xc2, 0xb4, 0x03, 0x04, 0xf1, 0xd9, 0x36, 0x0e, 0xf1, 0x9c, 0x2e, 0xbe,
  0xee, 0xde, 0x33, 0x20, 0xf1, 0xfd, 0x5b, 0x1b, 0xc7, 0x09, 0x0e, 0xd4,
  0xb3, 0x36, 0x24, 0x01, 0xa9, 0xef, 0x08, 0x97, 0xc3, 0x33, 0xe3, 0xb0,
  0xb8, 0x33, 0xf0, 0xfa, 0xb8, 0x2d, 0x10, 0xec, 0xb4, 0xe7, 0x05, 0xb8,
  0xb1, 0x24, 0xfb, 0xec, 0x97, 0xdf, 0x1f, 0x1d, 0x81, 0x1b, 0xd4, 0xe6,
  0xd7, 0xfe, 0xe7, 0xe3, 0x9b, 0xe4, 0xc1, 0x2c, 0xcf, 0x0c, 0xbd, 0x33,
  0xb1, 0xe1, 0xde, 0x23, 0x0f, 0xa6, 0x02, 0x01, 0xdc, 0xdb, 0x00, 0x0b,
  0xd7, 0xd4, 0x0c, 0x12, 0xf7, 0xb1, 0xb4, 0x18, 0xdf, 0x9d, 0x0e, 0xe8,
  0x0d, 0xff, 0xe9, 0x13, 0xe9, 0x0c, 0xee, 0xf0, 0xe3, 0xfb, 0xfc, 0xff,
  0xfa, 0xd4, 0xe9, 0x2f, 0x04, 0xfa, 0xe7, 0xfb, 0x0a, 0xdd, 0xf1, 0x26,
  0x26, 0xd8, 0xf8, 0x20, 0xe1, 0xcf, 0x12, 0xf5, 0x1f, 0xee, 0xc8, 0x23,
  0xf7, 0xc7, 0xd7, 0x10, 0xfe, 0xc6, 0x05, 0x12, 0xe8, 0xcd, 0xe0, 0x04,
  0xea, 0xe8, 0xdc, 0x28, 0x0f, 0xef, 0xdb, 0xdf, 0xf3, 0x02, 0xd9, 0xfb,
  0x1e, 0x07, 0xcb, 0x06, 0x0f, 0xed, 0xd6, 0xec, 0x17, 0xdb, 0x0f, 0xf6,
  0x17, 0xd9, 0xdf, 0xe7, 0x0d, 0xf0, 0xe2, 0x19, 0x26, 0xd5, 0xe1, 0x02,
  0xf7, 0xe3, 0xe1, 0xe5, 0x2d, 0xd6, 0xcb, 0x2b, 0xfc, 0xdf, 0xf3, 0x07,
  0x1d, 0xe4, 0xd5, 0x09, 0x03, 0xdf, 0xbc, 0x05, 0x1a, 0xeb, 0xa6, 0xde,
  0xe1, 0x05, 0xcc, 0xdb, 0x06, 0xfc, 0xd1, 0xcf, 0xd0, 0xfa, 0xb3, 0x1d,
  0x17, 0xfc, 0xdc, 0x0f, 0xf4, 0x1c, 0x98, 0x05, 0xe6, 0x23, 0x8f, 0x28,
  0x0c, 0x2c, 0xcb, 0x07, 0x08, 0x0c, 0xb6, 0xe4, 0xdd, 0x0a, 0xd2, 0xd7,
  0x0f, 0x39, 0x9a, 0xfa, 0xf0, 0x2c, 0xa5, 0xf9, 0xec, 0x1b, 0xae, 0xea,
  0xff, 0x1c, 0x81, 0xd7, 0x81, 0x14, 0xea, 0x32, 0xd5, 0xe0, 0x2e, 0x4b,
  0xe4, 0x56, 0xc6, 0x36, 0xcc, 0x5f, 0xd9, 0xe6, 0xe9, 0x6d, 0xc3, 0xea,
  0xcd, 0x76, 0xeb, 0x4a, 0x19, 0x2e, 0xef, 0xe9, 0x3f, 0x56, 0xa9, 0x33,
  0x3a, 0x61, 0x10, 0xb4, 0x6c, 0x3b, 0xe6, 0xd9, 0x7e, 0x58, 0x13, 0xb1,
  0x50, 0x4b, 0xea, 0xfd, 0xe9, 0xf4, 0x1c, 0x86, 0xf5, 0x0b, 0x26, 0xab,
  0x2c, 0xea, 0x18, 0xab, 0x41, 0x01, 0x0c, 0xe6, 0xce, 0x06, 0xd9, 0xef,
  0xdb, 0xb4, 0xfd, 0xef, 0xcb, 0xdd, 0x10, 0x31, 0xaf, 0xd9, 0x0f, 0x3e,
  0xe5, 0xe0, 0x08, 0x23, 0xbc, 0xb1, 0xd3, 0x01, 0xc0, 0x2c, 0xed, 0x1f,
  0xfe, 0xf6, 0xd4, 0x2c, 0xc9, 0x02, 0xdd, 0xd4, 0xd8, 0xce, 0xf4, 0x24,
  0x24, 0x00, 0xe6, 0x04, 0xca, 0x25, 0xf1, 0xb5, 0xc8, 0x4a, 0xe4, 0xc3,
  0xf6, 0x0d, 0x0a, 0xea, 0xfe, 0xf4, 0x06, 0xeb, 0x1d, 0x0c, 0xe9, 0x25,
  0x0a, 0xe6, 0xd8, 0xfa, 0x33, 0x0c, 0xd6, 0xe3, 0x05, 0xfe, 0xf3, 0x04,
  0xfc, 0x08, 0x05, 0x0b, 0xe9, 0xbe, 0x21, 0x3d, 0x30, 0xc5, 0x1d, 0x0c,
  0xec, 0xd9, 0xd0, 0x60, 0xe2, 0x02, 0x01, 0x4a, 0x38, 0x88, 0x07, 0xf0,
  0x14, 0xd2, 0x2e, 0x40, 0x5f, 0xa2, 0x02, 0xf7, 0x16, 0xa5, 0x1a, 0x3d,
  0x62, 0xf0, 0xe2, 0xcd, 0x6c, 0xfc, 0x54, 0x2b, 0x32, 0xe9, 0x3f, 0xe5,
  0x41, 0x44, 0x51, 0x0a, 0x22, 0x10, 0x1e, 0x0a, 0x16, 0x26, 0x37, 0xfa,
  0x14, 0x53, 0x44, 0xd3, 0xff, 0x4c, 0x20, 0xe1, 0xf7, 0x0b, 0x51, 0xef,
  0x1a, 0x55, 0x2b, 0xf0, 0xd3, 0x63, 0x41, 0xfd, 0xf1, 0x14, 0x36, 0xc9,
  0xcd, 0x40, 0x03, 0xf0, 0xe9, 0xdd, 0xe8, 0x12, 0xbe, 0x0a, 0xfc, 0x3d,
  0x42, 0x12, 0xf2, 0x17, 0x0a, 0x01, 0x18, 0x62, 0x1c, 0xf9, 0xd9, 0x2d,
  0x55, 0x07, 0x1e, 0x2b, 0xf8, 0xed, 0xd3, 0x0f, 0x17, 0x31, 0xd1, 0x2c,
  0xfe, 0x58, 0xd0, 0x41, 0xfb, 0x26, 0x19, 0xe4, 0x05, 0x68, 0x20, 0xf3,
  0x08, 0x60, 0xd8, 0xf2, 0xe7, 0x66, 0xe8, 0x33, 0xc8, 0x14, 0xe4, 0x31,
  0xf9, 0x79, 0xd5, 0x29, 0x18, 0x52, 0xa2, 0x0e, 0x4f, 0x7f, 0x05, 0x22,
  0x30, 0x68, 0xb6, 0x25, 0xf6, 0x44, 0xf1, 0x07, 0xf8, 0x61, 0xbe, 0x24,
  0x0b, 0x24, 0xcf, 0x19, 0xfe, 0x64, 0xbc, 0xff, 0x2a, 0x3a, 0xac, 0xc0,
  0xa3, 0x3f, 0x38, 0xff, 0xf1, 0x30, 0xf9, 0xd5, 0xbf, 0x09, 0xd6, 0xb8,
  0xf8, 0x09, 0x22, 0xee, 0xac, 0x17, 0x08, 0xd3, 0x09, 0xe7, 0x0d, 0xfb,
  0xf7, 0xdb, 0xd0, 0x06, 0xc2, 0xe8, 0xe4, 0x22, 0xfd, 0xfe, 0x14, 0xf2,
  0xbe, 0xe4, 0xe4, 0x09, 0xdd, 0xbc, 0xf6, 0xff, 0xd7, 0xc8, 0xfd, 0x1a,
  0xfa, 0xfc, 0xdc, 0xde, 0x40, 0x17, 0x37, 0xeb, 0xf9, 0xd2, 0x1d, 0xda,
  0x34, 0xfb, 0x47, 0x1e, 0x02, 0x10, 0x2a, 0x00, 0xeb, 0xf5, 0xf9, 0xfb,
  0xd4, 0x19, 0xfc, 0xf6, 0xa9, 0xf0, 0xed, 0xe4, 0x8d, 0x02, 0x38, 0xdc,
  0x92, 0xe5, 0xf3, 0xff, 0xaf, 0x09, 0xc6, 0xee, 0x81, 0xe6, 0x02, 0x2a,
  0xdc, 0xfd, 0xf6, 0x19, 0xf3, 0xbb, 0xe1, 0x3b, 0xba, 0xdb, 0xb1, 0x46,
  0xfb, 0xf7, 0xbe, 0x3e, 0xd4, 0x0a, 0xde, 0x3a, 0x1e, 0x14, 0xb2, 0x34,
  0x18, 0x01, 0x04, 0x13, 0x13, 0x1d, 0x13, 0x17, 0x2d, 0x35, 0xea, 0x0e,
  0x15, 0x20, 0x23, 0xc5, 0x04, 0x07, 0x12, 0xf0, 0x24, 0x48, 0x1d, 0xc5,
  0xd5, 0x45, 0x1a, 0xe6, 0x06, 0x28, 0x07, 0xae, 0xea, 0x1f, 0xef, 0xdd,
  0xb1, 0x1f, 0x0d, 0xfa, 0xe2, 0xd5, 0x39, 0x3d, 0xe9, 0xab, 0x0e, 0x01,
  0xdc, 0xaa, 0xf3, 0x3e, 0xfa, 0xdf, 0x1d, 0x5c, 0xc3, 0xf1, 0xea, 0x5d,
  0x0e, 0x15, 0x3f, 0xf2, 0xd8, 0x2b, 0x02, 0x3b, 0xb5, 0xf2, 0xdb, 0x34,
  0xe3, 0x57, 0x2f, 0x38, 0xab, 0x0f, 0xe5, 0x19, 0x9f, 0x6f, 0x2d, 0x14,
  0xa8, 0x1e, 0x00, 0x2d, 0xb4, 0x1d, 0xe3, 0xfe, 0x81, 0x27, 0xb6, 0xe2,
  0xe5, 0x0f, 0x95, 0x01, 0xdc, 0x7c, 0xb7, 0xed, 0xd4, 0x61, 0x14, 0xb9,
  0xf3, 0x20, 0x11, 0x36, 0x1e, 0x41, 0x29, 0xf1, 0x32, 0x02, 0xe6, 0xe9,
  0x3e, 0x90, 0x1a, 0xf8, 0x1e, 0x99, 0x02, 0x0c, 0xf2, 0x81, 0xa8, 0xdd,
  0x1f, 0xa4, 0xe1, 0x13, 0x0e, 0xc7, 0xfb, 0xd7, 0x16, 0xdc, 0x9d, 0x25,
  0xf6, 0xcb, 0x92, 0x4b, 0xd8, 0xe1, 0xc7, 0xe4, 0x0b, 0x14, 0x00, 0x1b,
  0xff, 0x00, 0x12, 0x4f, 0xcc, 0xdc, 0x1c, 0x4a, 0x16, 0x09, 0xbc, 0x14,
  0xf8, 0xdd, 0x18, 0xef, 0xf2, 0x0b, 0xcf, 0x22, 0x37, 0x0b, 0xf4, 0x05,
  0xf1, 0x08, 0x13, 0x18, 0x23, 0x00, 0x1f, 0xe7, 0x08, 0x1e, 0x2e, 0x30,
  0xf2, 0x2b, 0xcc, 0x09, 0xca, 0xe5, 0xff, 0xdd, 0x7e, 0xef, 0xcd, 0x0d,
  0x2f, 0x28, 0xf3, 0xfd, 0x79, 0x1f, 0xc6, 0xf4, 0x1b, 0xe7, 0xd9, 0x31,
  0x22, 0xef, 0x21, 0x23, 0x03, 0x09, 0x08, 0x3f, 0xe8, 0xf0, 0xec, 0x35,
  0xf0, 0x27, 0xd0, 0x08, 0x1e, 0x03, 0x26, 0xeb, 0x28, 0xf8, 0x4a, 0x1d,
  0x11, 0x31, 0x08, 0xe3, 0x25, 0x2b, 0x14, 0x3a, 0x0c, 0x54, 0x69, 0x23,
  0xba, 0x34, 0xf5, 0x13, 0x05, 0x4f, 0xfe, 0x0d, 0xcd, 0x11, 0x00, 0xe4,
  0xdd, 0x2d, 0xc6, 0xe5, 0xe4, 0x09, 0xdd, 0x34, 0x94, 0xfb, 0x09, 0xaa,
  0xbf, 0x16, 0x17, 0x11, 0xf4, 0x24, 0x0f, 0xf0, 0x02, 0x4e, 0xd5, 0xf4,
  0xc3, 0x05, 0x1b, 0x23, 0xec, 0xda, 0xfe, 0x2b, 0xc5, 0xd4, 0xd7, 0x13,
  0xd3, 0x45, 0xe4, 0x02, 0x36, 0xfc, 0x21, 0xe6, 0xef, 0x3b, 0xfa, 0x33,
  0xf7, 0x40, 0xd9, 0xbc, 0xe9, 0x32, 0xe5, 0xce, 0x06, 0x06, 0xcf, 0xfd,
  0x2c, 0x85, 0x21, 0x19, 0x2a, 0xb8, 0x0f, 0xaf, 0x09, 0x81, 0x11, 0xc6,
  0xd2, 0xb4, 0xdc, 0xd9, 0x0b, 0xac, 0xb9, 0xc5, 0xd3, 0x9b, 0xc2, 0xea,
  0x3f, 0xb7, 0xe7, 0x2b, 0x1e, 0xf2, 0x31, 0xc7, 0x38, 0xf1, 0x2b, 0x39,
  0xea, 0x81, 0xe2, 0xf7, 0xe3, 0xab, 0xc6, 0x1f, 0x0a, 0xba, 0xf7, 0xe8,
  0xf1, 0xdd, 0x9f, 0x3c, 0xfa, 0xb4, 0xc8, 0xe8, 0xfc, 0xa6, 0xdb, 0x44,
  0xe9, 0xe9, 0xeb, 0xcd, 0xc4, 0x0b, 0xf7, 0xc3, 0x15, 0xd5, 0xff, 0x1f,
  0x1e, 0xf4, 0xd4, 0x01, 0xd5, 0xf4, 0xa2, 0xc9, 0x1d, 0xfe, 0xaa, 0xfb,
  0xff, 0xcf, 0x9f, 0xdf, 0xd5, 0x13, 0xca, 0x04, 0xdc, 0x19, 0xcb, 0xe6,
  0x18, 0x15, 0xdf, 0x12, 0xb4, 0x29, 0xea, 0x0a, 0xd9, 0x20, 0xaf, 0xe3,
  0xcc, 0x0d, 0xb6, 0x29, 0xa2, 0x30, 0xc7, 0x13, 0xb2, 0x2f, 0xa6, 0xd6,
  0xa6, 0x16, 0xe1, 0x06, 0x88, 0x38, 0xb7, 0x24, 0xb6, 0x3e, 0xe0, 0xdf,
  0xb9, 0x31, 0x2b, 0xcc, 0xe0, 0x35, 0xf0, 0x0a, 0xbb, 0x3f, 0x0f, 0x06,
  0xf0, 0x3b, 0xe7, 0xe5, 0xd5, 0x3b, 0x22, 0x0e, 0xf8, 0x1b, 0xd2, 0x1f,
  0xdc, 0xf7, 0xfe, 0x15, 0x2c, 0xed, 0xf6, 0xf3, 0x2d, 0x10, 0x1e, 0x23,
  0x00, 0xf9, 0x20, 0xfc, 0x37, 0xf2, 0x2f, 0x14, 0xf7, 0x0d, 0x02, 0x54,
  0x14, 0xe6, 0x49, 0xe6, 0xe5, 0xe4, 0x2a, 0x09, 0x2d, 0x1b, 0x12, 0xda,
  0xfc, 0xdd, 0x5f, 0x17, 0x15, 0x91, 0x74, 0x87, 0x1a, 0xba, 0x04, 0xdf,
  0xe8, 0xd7, 0x68, 0xd1, 0x20, 0x97, 0xf0, 0xa9, 0xd8, 0xa2, 0xf0, 0x20,
  0xd4, 0xc8, 0xef, 0x42, 0xa7, 0xd9, 0x12, 0x4a, 0xec, 0xad, 0xd4, 0x08,
  0xd4, 0xd0, 0x09, 0xf3, 0x0d, 0xe4, 0x22, 0x09, 0x31, 0xcd, 0xff, 0x42,
  0x56, 0x9c, 0x21, 0xe7, 0x14, 0xa1, 0x0e, 0xf1, 0x5e, 0xd6, 0x5d, 0x15,
  0x42, 0x26, 0x0d, 0x07, 0x49, 0x65, 0x55, 0xfe, 0xca, 0x6c, 0x64, 0xc9,
  0x14, 0x7f, 0xe5, 0x0a, 0x1e, 0x77, 0x4b, 0xdc, 0xf5, 0x38, 0xdb, 0xfe,
  0xfb, 0x27, 0xbe, 0xbf, 0x56, 0x44, 0x2b, 0x04, 0xfa, 0xf0, 0x09, 0x16,
  0x62, 0x02, 0x39, 0xf8, 0x02, 0xbd, 0x1f, 0xdf, 0x23, 0xe1, 0x1e, 0xca,
  0x07, 0xef, 0xfc, 0x1c, 0x90, 0xf5, 0x47, 0xfd, 0x02, 0x14, 0x1e, 0xbb,
  0xab, 0x2e, 0x2d, 0xc8, 0xc5, 0x13, 0x06, 0xeb, 0xfd, 0xfa, 0xc2, 0xcd,
  0xff, 0xc9, 0xea, 0x02, 0x10, 0xb4, 0x2c, 0x1e, 0xfc, 0xbd, 0xd9, 0x2d,
  0xd3, 0xbd, 0xeb, 0x41, 0x19, 0x96, 0x0a, 0xe8, 0x19, 0x96, 0x15, 0x4b,
  0xd3, 0xfa, 0x31, 0xe4, 0xcc, 0xca, 0xd2, 0xe8, 0x2e, 0x31, 0xef, 0x3f,
  0x17, 0x11, 0x01, 0xfd, 0x24, 0x42, 0xcd, 0x29, 0x1a, 0x0e, 0xc6, 0x2f,
  0x09, 0xca, 0xcf, 0x24, 0x14, 0xbe, 0xc4, 0x10, 0x2e, 0xef, 0xde, 0xe8,
  0x03, 0xe5, 0x24, 0x2f, 0x27, 0xeb, 0xf4, 0xe7, 0x3b, 0xc5, 0xdb, 0xfd,
  0x02, 0xda, 0x27, 0xd6, 0x28, 0xe0, 0xeb, 0x2d, 0x16, 0xd7, 0x04, 0xfd,
  0xb5, 0xaa, 0xdb, 0xc2, 0xd0, 0xdf, 0xbf, 0xfe, 0xc7, 0xe3, 0x05, 0xfe,
  0xfb, 0xcf, 0xe2, 0x1f, 0xf8, 0xef, 0xf4, 0x23, 0xd3, 0x04, 0xf8, 0x0f,
  0x0a, 0x13, 0xea, 0xfe, 0xd8, 0x3b, 0xe0, 0x01, 0xbe, 0xf1, 0x00, 0xe3,
  0xde, 0x27, 0xeb, 0xcf, 0xc3, 0x1f, 0xf6, 0x19, 0xe3, 0x35, 0xcd, 0xce,
  0x08, 0x12, 0xf2, 0xbe, 0x1e, 0x3d, 0x17, 0xc5, 0x17, 0x01, 0xbe, 0x03,
  0x13, 0x2c, 0x0e, 0x11, 0xf6, 0xea, 0x11, 0xd8, 0x22, 0x04, 0xff, 0xfe,
  0xe2, 0x08, 0xff, 0xd3, 0x03, 0xc3, 0xd3, 0x13, 0xb5, 0xc5, 0xc9, 0x07,
  0xea, 0xe1, 0xe7, 0x0a, 0x05, 0xb0, 0xeb, 0x2c, 0xf9, 0xb7, 0xf4, 0x65,
  0x04, 0xaf, 0xd8, 0x16, 0x48, 0xa4, 0x4c, 0x16, 0x60, 0x81, 0x21, 0xcd,
  0xc6, 0xfd, 0x6b, 0x4f, 0x0e, 0x0d, 0x68, 0x5e, 0x05, 0xf3, 0x7f, 0x40,
  0x05, 0x3b, 0x55, 0x1c, 0x28, 0xfe, 0x17, 0x1e, 0x0d, 0x23, 0x30, 0x16,
  0xf0, 0x10, 0x37, 0xf1, 0xd5, 0xfa, 0x21, 0x09, 0xfa, 0x34, 0xf3, 0x18,
  0xf3, 0xf4, 0xe4, 0xe9, 0x01, 0x19, 0xdd, 0xf5, 0xf1, 0x09, 0x15, 0xf0,
  0xea, 0xe0, 0x06, 0x33, 0xfc, 0xf9, 0xe5, 0x14, 0x03, 0xe4, 0xfc, 0x2c,
  0xc3, 0x0e, 0xdd, 0x36, 0x02, 0x01, 0xdf, 0x44, 0xf6, 0xfb, 0x25, 0x28,
  0xfc, 0x2f, 0x36, 0x2b, 0x22, 0x01, 0x38, 0x1b, 0x26, 0xee, 0x43, 0xed,
  0x13, 0x03, 0x09, 0x18, 0x3b, 0x1d, 0x19, 0xff, 0x2d, 0x17, 0xeb, 0xfa,
  0xf1, 0x1c, 0xfb, 0xd9, 0x05, 0x1f, 0xf3, 0xcb, 0x00, 0x2a, 0x1c, 0xf9,
  0x02, 0x58, 0x16, 0x03, 0xde, 0x09, 0x19, 0xc2, 0xf8, 0xe8, 0x3a, 0xcf,
  0xfe, 0x02, 0x06, 0x21, 0x26, 0x03, 0x04, 0x0c, 0xf2, 0xeb, 0x19, 0x0d,
  0x28, 0xd4, 0x01, 0x20, 0xf8, 0xf9, 0x25, 0x10, 0xfc, 0xf3, 0x49, 0x37,
  0xee, 0xce, 0x39, 0x35, 0xde, 0xf9, 0x18, 0x24, 0x15, 0xe3, 0x28, 0x36,
  0xf0, 0xe9, 0x0f, 0xf5, 0xff, 0x7f, 0xe5, 0xc9, 0xf1, 0x45, 0x10, 0xcc,
  0x0a, 0x3d, 0xf9, 0xd6, 0x0c, 0xfd, 0x15, 0xdf, 0x0b, 0x15, 0xe8, 0xf7,
  0xed, 0xc8, 0xff, 0xde, 0x16, 0xfd, 0xf1, 0xe1, 0x08, 0x08, 0x0d, 0x0c,
  0xf7, 0xe4, 0xe6, 0xe4, 0x18, 0xd8, 0x12, 0xda, 0x0a, 0x17, 0xfb, 0xe0,
  0xf0, 0xd6, 0x08, 0xfd, 0x14, 0x06, 0xec, 0xe3, 0xf3, 0xce, 0x18, 0xd7,
  0xe4, 0xf1, 0xf5, 0xf3, 0xfa, 0xbe, 0x08, 0x11, 0x21, 0xbc, 0xd7, 0xe0,
  0x14, 0xbe, 0x19, 0x19, 0x26, 0xd6, 0xed, 0x08, 0x20, 0xc2, 0xf8, 0xfd,
  0x28, 0xc9, 0xf5, 0x1a, 0x2f, 0xb5, 0x19, 0x29, 0x1f, 0xb0, 0x28, 0x20,
  0x2a, 0xc8, 0xf6, 0x1b, 0x20, 0xac, 0x3e, 0x0f, 0x47, 0xdd, 0x15, 0x17,
  0x4c, 0xdd, 0x3e, 0x11, 0x32, 0xdc, 0x68, 0xe3, 0x41, 0x06, 0x57, 0xf1,
  0x32, 0xf4, 0x45, 0x09, 0x11, 0x07, 0x42, 0x11, 0x1b, 0x1e, 0x42, 0xe1,
  0xf4, 0x07, 0x23, 0xd6, 0xd4, 0x32, 0x0e, 0x03, 0xd1, 0x16, 0x06, 0x10,
  0xef, 0xf3, 0x10, 0x0c, 0xc3, 0x1e, 0x1a, 0x03, 0xf4, 0x23, 0x17, 0xf7,
  0x08, 0x10, 0x17, 0x3f, 0xe4, 0x60, 0xde, 0xfe, 0x25, 0x7f, 0x6b, 0x6e,
  0xc8, 0xf5, 0xe7, 0x1a, 0x2a, 0x1d, 0xe5, 0x00, 0x07, 0x05, 0x0f, 0x39,
  0xfa, 0x53, 0xef, 0x33, 0x13, 0xd2, 0x01, 0xce, 0xfb, 0xde, 0x06, 0xfb,
  0x4a, 0x31, 0x33, 0xe5, 0x16, 0xe2, 0x14, 0xca, 0x21, 0x04, 0x0b, 0x24,
  0xd1, 0xc4, 0xfc, 0x15, 0x08, 0xc5, 0x5f, 0xef, 0xae, 0xf6, 0xfb, 0xf6,
  0xb4, 0x8b, 0x14, 0x33, 0xc2, 0xad, 0xf3, 0x4c, 0xb4, 0x8c, 0x34, 0xf2,
  0xf7, 0xbc, 0x25, 0x43, 0x22, 0xc6, 0xe8, 0x1d, 0xf0, 0xab, 0x26, 0x02,
  0x3b, 0xac, 0x2b, 0x6a, 0x04, 0xbf, 0x3f, 0x4a, 0x4a, 0xab, 0x1a, 0x33,
  0x45, 0x15, 0x6c, 0x43, 0x48, 0xf5, 0x63, 0x1a, 0x1e, 0x02, 0x6e, 0x4d,
  0x5d, 0x09, 0x68, 0x0e, 0x6c, 0x3a, 0x70, 0xf2, 0x5f, 0x3c, 0x50, 0x06,
  0x31, 0xd3, 0x21, 0x2a, 0xfa, 0xd3, 0x17, 0xf1, 0x4e, 0x05, 0xfe, 0xc5,
  0xfd, 0xdb, 0x6f, 0xde, 0x18, 0x0b, 0x4b, 0xf0, 0x0b, 0xef, 0x2d, 0xd7,
  0xa2, 0x12, 0x3b, 0xab, 0xee, 0x1b, 0xe7, 0xb2, 0xda, 0x1b, 0x06, 0x0a,
  0xa0, 0xcf, 0x31, 0xd9, 0xc7, 0x22, 0x29, 0xf3, 0xdf, 0x0c, 0x02, 0x21,
  0x02, 0xe0, 0x33, 0xea, 0xeb, 0xcd, 0xce, 0x10, 0x18, 0xee, 0xed, 0x43,
  0x30, 0xbc, 0xb4, 0x5e, 0x27, 0x34, 0xdd, 0x30, 0x32, 0xd6, 0xfc, 0x7f,
  0x3b, 0xd0, 0x25, 0x45, 0x11, 0x10, 0x05, 0x14, 0x4c, 0x1c, 0xf5, 0x24,
  0xf1, 0x09, 0x40, 0xdd, 0x10, 0x16, 0x41, 0xe3, 0x09, 0x6a, 0x09, 0xbc,
  0xb1, 0xfa, 0x06, 0x05, 0xec, 0x06, 0xf2, 0xcd, 0xa2, 0x16, 0x4f, 0x22,
  0x09, 0xda, 0x4f, 0xed, 0xd0, 0x38, 0x00, 0xf0, 0xfc, 0xef, 0x01, 0x07,
  0xdf, 0x0c, 0xc2, 0xf3, 0xe2, 0xdc, 0xdd, 0x2a, 0xd7, 0xc6, 0xe9, 0x3d,
  0x0c, 0x03, 0xd9, 0x1f, 0xeb, 0xa0, 0xdd, 0x46, 0x10, 0xe2, 0xe5, 0x35,
  0xc1, 0xb3, 0x10, 0x34, 0x2a, 0xf2, 0x18, 0xca, 0xf8, 0xcc, 0xe8, 0x42,
  0x2b, 0x21, 0x5a, 0xf6, 0xe1, 0xdd, 0x5c, 0xcc, 0xd6, 0xd8, 0x3c, 0xf7,
  0xfb, 0xfc, 0xf7, 0x16, 0x32, 0x32, 0x6f, 0xee, 0xd6, 0x13, 0xf6, 0xb0,
  0x1e, 0xfc, 0x3d, 0xbe, 0x24, 0xde, 0x2b, 0xeb, 0xeb, 0x0e, 0x07, 0xf6,
  0x24, 0xb3, 0x3e, 0x4b, 0x16, 0xf8, 0xed, 0xf8, 0xf6, 0xe5, 0xd1, 0x63,
  0x21, 0xaa, 0xf2, 0x4e, 0x2b, 0xcc, 0xd5, 0xe2, 0x19, 0xe5, 0xb9, 0xe8,
  0xe7, 0x17, 0xf0, 0xdb, 0x22, 0xdd, 0xe2, 0xfb, 0x11, 0x20, 0x31, 0x08,
  0x28, 0x24, 0x22, 0xf3, 0x07, 0xd3, 0x1f, 0xf5, 0xf2, 0xca, 0x34, 0x00,
  0x32, 0xcf, 0xfb, 0xdd, 0xfd, 0xa4, 0x1e, 0x16, 0xfb, 0x9e, 0xea, 0xe1,
  0x12, 0xbf, 0xee, 0x18, 0x00, 0xee, 0xea, 0xe4, 0x2a, 0xf0, 0xdc, 0x0a,
  0x17, 0xde, 0xcc, 0x12, 0x27, 0x18, 0x09, 0xd9, 0x0f, 0x04, 0xf7, 0xf9,
  0x1e, 0xe9, 0xeb, 0xed, 0xe9, 0x04, 0xe0, 0xdf, 0x0f, 0xcc, 0xe3, 0x0c,
  0x2a, 0xe5, 0xe1, 0x0f, 0x20, 0xf2, 0xcd, 0x1c, 0x2b, 0x3d, 0xe3, 0x02,
  0xf7, 0xf9, 0x18, 0x25, 0x04, 0x13, 0x11, 0x04, 0x35, 0xed, 0x05, 0xf1,
  0x32, 0x01, 0xea, 0x11, 0x19, 0x20, 0x1e, 0x08, 0x16, 0xd6, 0x0f, 0x02,
  0xd2, 0xfa, 0x06, 0x1e, 0xfe, 0xff, 0xe5, 0x0d, 0xe3, 0xde, 0xc1, 0x13,
  0x08, 0xc7, 0xdc, 0x00, 0xf1, 0x08, 0xf1, 0x37, 0x34, 0x09, 0xcb, 0x13,
  0xec, 0x27, 0x10, 0x33, 0x19, 0x15, 0xcf, 0x0c, 0x27, 0x45, 0xf9, 0x13,
  0xeb, 0x26, 0x2b, 0x44, 0xfc, 0x53, 0x1e, 0x7f, 0x18, 0xd4, 0xc6, 0xe1,
  0xf2, 0x1d, 0xd7, 0xdc, 0xfa, 0xef, 0x02, 0x08, 0xe1, 0xdd, 0xba, 0xe4,
  0x16, 0xfb, 0xcd, 0xe4, 0xd5, 0xdd, 0x03, 0x2a, 0xd7, 0x02, 0xb4, 0x21,
  0x0a, 0xbe, 0xf1, 0x16, 0xd0, 0xd2, 0xff, 0x16, 0xef, 0xe9, 0xca, 0x27,
  0x2a, 0xf3, 0xdf, 0xf6, 0xe7, 0xde, 0xd3, 0xe1, 0x0a, 0x32, 0x01, 0xe0,
  0xf9, 0xee, 0xe9, 0x9b, 0x24, 0x32, 0xf9, 0xd3, 0xca, 0x0d, 0xc0, 0x81,
  0x0a, 0x4d, 0x15, 0xa3, 0x1b, 0xec, 0xe8, 0xd3, 0xde, 0xf5, 0xac, 0xc6,
  0xd2, 0xe4, 0xf2, 0xed, 0x02, 0xd8, 0xcf, 0x1e, 0xec, 0x18, 0xf2, 0x08,
  0xf0, 0x1c, 0xca, 0xf1, 0xa6, 0xe2, 0xfd, 0x33, 0x07, 0x24, 0xe4, 0x27,
  0x08, 0x11, 0xb0, 0xf2, 0xef, 0x10, 0xfe, 0xcd, 0x0c, 0xed, 0xde, 0xe4,
  0x02, 0xf8, 0xb4, 0x04, 0xea, 0xe0, 0xca, 0xf2, 0xc6, 0x16, 0xf1, 0xf2,
  0xdd, 0xe6, 0xd7, 0xdd, 0xdc, 0xee, 0xb8, 0x06, 0xc2, 0xca, 0xb8, 0x13,
  0xdc, 0xd6, 0xed, 0xfe, 0xcb, 0xf8, 0xc0, 0xf9, 0xf5, 0x07, 0xe8, 0xe1,
  0xe6, 0xb9, 0x1d, 0xd6, 0xc1, 0x0c, 0x06, 0x0d, 0xb9, 0xd8, 0xd3, 0x27,
  0xcc, 0xa9, 0xb5, 0x20, 0x26, 0xde, 0xe1, 0x41, 0xf8, 0xbf, 0xc6, 0x06,
  0xe7, 0xd1, 0xc0, 0x5e, 0x1c, 0xd3, 0xc4, 0x50, 0xe9, 0x1b, 0x24, 0x18,
  0xd7, 0xed, 0xcf, 0xf2, 0xfa, 0x10, 0x21, 0xf6, 0x26, 0x55, 0xd0, 0x29,
  0xf7, 0xff, 0xde, 0x1b, 0x1c, 0x41, 0xed, 0x30, 0x39, 0xf5, 0x1c, 0xf4,
  0xef, 0x12, 0xbb, 0xfd, 0x1a, 0xfb, 0x2d, 0x39, 0x11, 0x39, 0xe2, 0x0f,
  0x1a, 0xc2, 0xd8, 0xe6, 0x15, 0xe1, 0x0d, 0x02, 0x46, 0xef, 0x01, 0xd7,
  0x1a, 0xdd, 0x0c, 0xc5, 0x28, 0x0b, 0x0d, 0xdc, 0x35, 0x01, 0x2e, 0x0b,
  0x1c, 0xac, 0x25, 0xfd, 0xdc, 0xfc, 0x73, 0xcd, 0x04, 0xc9, 0x63, 0xba,
  0x21, 0xe4, 0x3e, 0xfa, 0xc0, 0xca, 0x5a, 0xb4, 0xee, 0xcc, 0x17, 0xc3,
  0xfc, 0xcb, 0x27, 0xec, 0xef, 0x0b, 0x1b, 0xf3, 0xf6, 0xc7, 0xcd, 0x34,
  0xf3, 0xc7, 0x2b, 0xe9, 0xce, 0xc1, 0x04, 0xef, 0xfb, 0xce, 0xf5, 0x1a,
  0x0d, 0x22, 0x3a, 0x2b, 0x16, 0xe7, 0x3d, 0x15, 0x2c, 0xe6, 0x51, 0xcb,
  0x50, 0x16, 0x4f, 0xea, 0x31, 0x42, 0x0b, 0xb9, 0x4e, 0x70, 0x2e, 0xdc,
  0x55, 0x59, 0x79, 0x81, 0xf2, 0x16, 0x26, 0x3e, 0xdf, 0x01, 0x15, 0x06,
  0xee, 0xfc, 0xf0, 0x02, 0xd4, 0x42, 0x16, 0xef, 0xc5, 0x05, 0x2a, 0xf5,
  0xa1, 0x48, 0x07, 0xf4, 0xed, 0x2d, 0xee, 0xed, 0xc1, 0x35, 0xe0, 0xdc,
  0xda, 0x1d, 0xdf, 0xe5, 0xe4, 0x5b, 0x02, 0xf7, 0xd6, 0x2a, 0xf7, 0xc7,
  0xdd, 0x37, 0x15, 0xf0, 0x0d, 0x52, 0xc9, 0xe8, 0xec, 0x26, 0xe3, 0xd0,
  0xd4, 0x69, 0xd2, 0x19, 0xff, 0x4c, 0x0e, 0xd9, 0xdb, 0x2d, 0xd5, 0xe8,
  0xfe, 0x66, 0xf0, 0xda, 0xfd, 0x5b, 0x0a, 0x21, 0x05, 0x29, 0xc5, 0x17,
  0xf0, 0x7f, 0xd2, 0xfb, 0xf9, 0x2b, 0xd9, 0xcc, 0xf9, 0x41, 0xea, 0xff,
  0xf3, 0x1c, 0x03, 0x0b, 0xea, 0x18, 0xef, 0xec, 0x2d, 0x04, 0xc0, 0xe6,
  0x22, 0xeb, 0xe8, 0x29, 0x3e, 0xcd, 0xae, 0x03, 0x12, 0xaf, 0xf3, 0x1d,
  0x35, 0xe7, 0xd3, 0x32, 0x28, 0xd2, 0xfe, 0x00, 0xf9, 0xf0, 0xc9, 0x36,
  0x2f, 0xd2, 0x06, 0xf3, 0x31, 0xbe, 0xd1, 0xf0, 0x03, 0xb5, 0xf9, 0x06,
  0x24, 0xd7, 0xfd, 0x1d, 0xff, 0xf4, 0x10, 0x08, 0xf4, 0xda, 0x24, 0x1b,
  0x11, 0xd6, 0x07, 0x0b, 0x2c, 0xc8, 0x0f, 0x02, 0x10, 0x32, 0x4b, 0x22,
  0x09, 0x16, 0x4e, 0xfe, 0x06, 0x24, 0x0b, 0xeb, 0xcd, 0xfa, 0x21, 0x01,
  0x08, 0xef, 0xde, 0x29, 0xef, 0xeb, 0xea, 0x2a, 0xfa, 0xf1, 0x05, 0x05,
  0x10, 0xe1, 0xce, 0x3c, 0x05, 0xde, 0xdb, 0x27, 0x06, 0xff, 0x0d, 0x2c,
  0xf4, 0xc0, 0xea, 0x29, 0x23, 0xf7, 0x11, 0x38, 0x05, 0x13, 0xf5, 0x3a,
  0xec, 0xf9, 0x11, 0x04, 0xf4, 0x16, 0xf6, 0x20, 0xfd, 0x30, 0x12, 0x18,
  0xf7, 0x08, 0xf5, 0x22, 0xfe, 0x32, 0x27, 0xfd, 0x03, 0x0f, 0xec, 0x05,
  0x16, 0x24, 0x20, 0x11, 0x42, 0x20, 0xe7, 0xe2, 0x4f, 0x31, 0xe4, 0xf5,
  0x2b, 0x16, 0xfa, 0x15, 0x51, 0x0a, 0xd6, 0xfa, 0x3c, 0x10, 0x14, 0xdf,
  0x1d, 0xe9, 0xf0, 0x0f, 0x36, 0xcf, 0x2d, 0x31, 0x2a, 0xfe, 0x26, 0x23,
  0x36, 0xd3, 0x09, 0xfc, 0xe7, 0xeb, 0xe6, 0x29, 0x12, 0xf3, 0xfe, 0xe8,
  0x26, 0x15, 0x15, 0xea, 0xf9, 0xf5, 0xf9, 0xcf, 0x02, 0x09, 0x2a, 0xc8,
  0x0c, 0x3f, 0x35, 0xce, 0x14, 0x01, 0x37, 0xc1, 0x00, 0x26, 0xfd, 0x81,
  0x0e, 0x0b, 0xde, 0xb3, 0x0c, 0x1a, 0xd4, 0xbc, 0x34, 0x12, 0xb0, 0xe3,
  0xf1, 0xeb, 0xb1, 0xbe, 0x1f, 0xad, 0xae, 0x13, 0x0d, 0x07, 0x0d, 0xf3,
  0xdb, 0xbb, 0xfe, 0x11, 0x07, 0x17, 0x0f, 0xd9, 0xe9, 0xd7, 0xde, 0xfd,
  0x0a, 0xf0, 0x2d, 0xe3, 0xe1, 0xcb, 0x19, 0xc8, 0xfa, 0xc0, 0x32, 0xc1,
  0xea, 0xfb, 0x02, 0xd8, 0xdb, 0xba, 0x20, 0xe1, 0xae, 0xc4, 0x21, 0xd7,
  0xc0, 0xc0, 0xd6, 0xd3, 0xd7, 0xbe, 0x28, 0xd1, 0xdf, 0xd5, 0x18, 0x15,
  0xed, 0xd2, 0x16, 0x3d, 0xc0, 0xce, 0x05, 0x16, 0xd3, 0xf2, 0xc6, 0xee,
  0xca, 0xce, 0x0a, 0xf4, 0xaa, 0xbc, 0xb5, 0x41, 0xf0, 0xe5, 0xdb, 0x34,
  0xbe, 0xaf, 0xe2, 0xfe, 0x0c, 0xad, 0xec, 0x55, 0xff, 0xdf, 0xff, 0x25,
  0xcf, 0xb5, 0xf5, 0x5b, 0xdf, 0xd6, 0x2e, 0x75, 0x03, 0xd7, 0x1b, 0x25,
  0xb6, 0xd3, 0x38, 0x7b, 0xda, 0xd4, 0x1f, 0x7f, 0xea, 0xda, 0x08, 0x16,
  0xe2, 0xc4, 0x34, 0x0f, 0x25, 0xcf, 0x1b, 0x02, 0x13, 0x03, 0x61, 0x11,
  0xe1, 0xae, 0x32, 0xf3, 0x23, 0xc7, 0x15, 0x0a, 0xcf, 0xfd, 0x18, 0xc3,
  0x27, 0xb2, 0x44, 0x23, 0xfb, 0xff, 0x6c, 0x33, 0xe6, 0x08, 0x54, 0x4b,
  0xa3, 0x9d, 0x1b, 0x54, 0xa1, 0xc2, 0xee, 0x39, 0xe3, 0xe5, 0xd4, 0x03,
  0xe9, 0x37, 0x27, 0xee, 0x30, 0x4b, 0xe7, 0x8d, 0xc5, 0x59, 0x26, 0x91,
  0x32, 0x44, 0x28, 0x95, 0xfe, 0x26, 0x0c, 0xa2, 0x11, 0x65, 0x31, 0xd0,
  0xf6, 0xdc, 0x3c, 0xfe, 0xe7, 0x37, 0x0c, 0xe5, 0x99, 0x21, 0xef, 0xe3,
  0x96, 0x10, 0xa3, 0x2d, 0xb5, 0x26, 0xf7, 0x0f, 0x9b, 0x2f, 0xe3, 0x02,
  0xf2, 0xc4, 0xf2, 0x2a, 0xf2, 0x16, 0xc6, 0xe6, 0x1a, 0x30, 0xcb, 0xfc,
  0x10, 0xe4, 0xbf, 0x1c, 0xc8, 0x43, 0xd0, 0x14, 0xd0, 0xc6, 0xf1, 0xff,
  0x03, 0x31, 0xa6, 0xc8, 0x20, 0x51, 0xba, 0xf4, 0xd1, 0x26, 0x25, 0xf8,
  0xd9, 0x3d, 0x0c, 0x81, 0x0b, 0x5e, 0x2b, 0xaf, 0xf3, 0x40, 0xb6, 0xb0,
  0xff, 0x05, 0x11, 0xa0, 0x1a, 0x31, 0xd4, 0xbd, 0x27, 0xc9, 0x39, 0xa7,
  0xe4, 0x28, 0x0f, 0xef, 0x28, 0x07, 0xcc, 0x0d, 0x21, 0x0d, 0x4e, 0x2d,
  0x04, 0xdb, 0xf2, 0x2a, 0xe9, 0x05, 0xef, 0x11, 0x15, 0x04, 0x06, 0xcc,
  0x0d, 0x1a, 0x3b, 0xc3, 0xd2, 0xf9, 0x14, 0x13, 0xd9, 0xd6, 0xf7, 0xbd,
  0x0c, 0x0e, 0xf3, 0xa5, 0xf5, 0xde, 0x0b, 0x89, 0x7f, 0xfb, 0xc3, 0xc2,
  0x26, 0x4e, 0x11, 0x04, 0x31, 0xee, 0xe3, 0xf8, 0xfe, 0xe5, 0xcb, 0x19,
  0xe8, 0xd9, 0xf6, 0x0d, 0x01, 0xcd, 0xec, 0xe5, 0x1e, 0x0d, 0xe4, 0xe6,
  0xca, 0x35, 0xbc, 0xfd, 0x00, 0x24, 0xe1, 0x26, 0x19, 0x25, 0xec, 0xd1,
  0xd4, 0xf9, 0xe6, 0x1e, 0x1f, 0xfe, 0x02, 0xdb, 0x0f, 0xed, 0x23, 0x03,
  0xfe, 0xde, 0xff, 0xea, 0x14, 0xcb, 0x11, 0x2b, 0x06, 0xf0, 0xce, 0x17,
  0xe1, 0xd1, 0x0a, 0x58, 0x15, 0x21, 0x00, 0x30, 0x08, 0x23, 0xc7, 0x39,
  0xfd, 0xfd, 0x09, 0x41, 0xd2, 0x41, 0x05, 0x2e, 0xd3, 0xfa, 0xe3, 0x25,
  0x07, 0x1f, 0x39, 0x3f, 0xf0, 0xee, 0x2d, 0x5d, 0x02, 0xee, 0xee, 0x26,
  0xce, 0xf7, 0x37, 0x5c, 0xee, 0x13, 0x47, 0x23, 0x09, 0xd4, 0x4b, 0x01,
  0x0e, 0xff, 0xf0, 0x00, 0xfa, 0x03, 0x4e, 0x37, 0xf7, 0x1e, 0x2d, 0x3f,
  0x09, 0x12, 0x47, 0xe6, 0x4e, 0x07, 0x1d, 0x3d, 0x2e, 0xf0, 0x1e, 0x20,
  0x1f, 0x21, 0x1b, 0x1e, 0x40, 0x2f, 0x4a, 0x26, 0xf4, 0xeb, 0x20, 0xfb,
  0xf4, 0xdb, 0xfa, 0x00, 0xee, 0xe8, 0x1f, 0x10, 0x1f, 0x2b, 0x30, 0x21,
  0x1f, 0x7f, 0x25, 0xc9, 0x0a, 0x1a, 0xf0, 0xbc, 0x1e, 0x33, 0xf0, 0xcb,
  0xf9, 0x21, 0x2f, 0xbe, 0x1f, 0x0b, 0x0e, 0xc2, 0xef, 0x2f, 0xf6, 0xf3,
  0x0c, 0xf9, 0xe0, 0xc9, 0xd8, 0x05, 0x22, 0xfe, 0x18, 0x25, 0xd3, 0x26,
  0x2e, 0xe1, 0xfb, 0x34, 0x16, 0xf8, 0xdc, 0xfc, 0x13, 0x25, 0xfb, 0x1a,
  0x4b, 0x37, 0xff, 0x13, 0x15, 0x0d, 0xf4, 0x06, 0x03, 0x18, 0xe0, 0xdc,
  0x39, 0x0c, 0x44, 0xc4, 0x12, 0x3e, 0xf3, 0xd6, 0x33, 0x36, 0x01, 0xac,
  0xe9, 0x43, 0x23, 0xad, 0x13, 0x4b, 0x2e, 0xbf, 0xe5, 0x10, 0x17, 0xb7,
  0xe1, 0x4c, 0x22, 0xc3, 0xd1, 0x2d, 0xdb, 0xdc, 0xee, 0x10, 0xfb, 0xdd,
  0xd9, 0x3d, 0xeb, 0x0c, 0x23, 0x3b, 0xe7, 0x20, 0x0c, 0x08, 0x01, 0xe1,
  0xf7, 0x29, 0x03, 0xdf, 0x0e, 0xf2, 0xf3, 0x17, 0x12, 0xfb, 0xee, 0x03,
  0xe6, 0x04, 0xdb, 0x1d, 0xf9, 0xe3, 0x01, 0x0e, 0x2a, 0x03, 0xf1, 0x05,
  0x21, 0xfd, 0x07, 0xf0, 0xf2, 0xfb, 0xf7, 0x00, 0x27, 0xec, 0x11, 0xc0,
  0x37, 0x14, 0xed, 0x00, 0x18, 0xfd, 0xd6, 0x0a, 0x01, 0x07, 0x29, 0xc8,
  0x08, 0xfc, 0xd6, 0x26, 0x09, 0xc4, 0x1b, 0xdc, 0x1d, 0x8b, 0xcb, 0x05,
  0xf7, 0x18, 0x0f, 0xd6, 0xe7, 0xd5, 0xf3, 0xed, 0xdc, 0xc8, 0x21, 0xb4,
  0xdd, 0x20, 0x14, 0x0e, 0xd7, 0x09, 0x3e, 0x8c, 0x2f, 0x09, 0x39, 0xbc,
  0xd5, 0x20, 0x08, 0xba, 0x16, 0xed, 0x25, 0x9f, 0x12, 0x3b, 0x08, 0xe2,
  0xf6, 0xe8, 0x03, 0xd8, 0x1e, 0x0a, 0xa6, 0x48, 0xdb, 0x00, 0xae, 0x2a,
  0xd1, 0x0b, 0xb9, 0x1c, 0x2c, 0x09, 0xcb, 0x6e, 0xca, 0xe9, 0xd1, 0x33,
  0xe0, 0x24, 0xd7, 0x48, 0xf5, 0xf9, 0xb2, 0x30, 0xcb, 0x08, 0xac, 0x38,
  0xd3, 0x38, 0xdf, 0x15, 0x00, 0xe2, 0xb3, 0x58, 0xbe, 0x0c, 0x81, 0x19,
  0xee, 0xe2, 0x87, 0x38, 0xe0, 0x0c, 0xe8, 0x3a, 0xdf, 0xda, 0xee, 0x3b,
  0xd1, 0x08, 0x92, 0x64, 0xf1, 0xeb, 0x9a, 0x59, 0xca, 0xe7, 0xac, 0x3c,
  0xda, 0x19, 0xd9, 0x26, 0x0f, 0xf2, 0xf2, 0x50, 0xc8, 0xf1, 0xe3, 0x56,
  0xfd, 0xd7, 0xbe, 0x08, 0x21, 0xd5, 0xe5, 0x09, 0xd4, 0xe4, 0xb4, 0x48,
  0x04, 0xa4, 0xf5, 0x2d, 0xd5, 0xbd, 0x0d, 0x44, 0x15, 0xdd, 0xea, 0x04,
  0x06, 0xeb, 0x03, 0x13, 0xd2, 0xc5, 0xef, 0x00, 0x2a, 0x13, 0xe8, 0x02,
  0xdc, 0xf4, 0xf3, 0x19, 0x0a, 0x27, 0xdb, 0xfc, 0x08, 0x38, 0x01, 0xe5,
  0x14, 0x12, 0xf1, 0x04, 0xf1, 0x32, 0x1f, 0xe9, 0x07, 0x37, 0x2b, 0x22,
  0x1e, 0x17, 0x15, 0x0b, 0xf5, 0x2b, 0x3a, 0x00, 0xda, 0x03, 0x3c, 0x12,
  0xe5, 0xfa, 0x15, 0x2d, 0x0a, 0x05, 0x23, 0x33, 0xe5, 0xfd, 0x20, 0x2c,
  0xc1, 0x1d, 0x07, 0xfc, 0x00, 0xe4, 0x07, 0x15, 0x0e, 0x12, 0x19, 0x33,
  0xe9, 0xf4, 0x1e, 0x23, 0xee, 0x02, 0xeb, 0xe3, 0x34, 0xdf, 0x47, 0xed,
  0xf7, 0x00, 0x0d, 0xeb, 0xfe, 0xdb, 0x2e, 0x10, 0x1b, 0xed, 0x28, 0x1d,
  0x0f, 0xe2, 0x4b, 0x0d, 0xea, 0xf8, 0x1c, 0xfb, 0xe9, 0xea, 0x20, 0xfe,
  0x41, 0x23, 0x08, 0x15, 0x2d, 0x01, 0xf5, 0xf9, 0x22, 0x09, 0x1d, 0xec,
  0x44, 0x42, 0x01, 0xe9, 0x4e, 0x18, 0x1e, 0xf2, 0x10, 0x09, 0xfa, 0x03,
  0x1f, 0x16, 0xdf, 0xda, 0x35, 0xfc, 0x1e, 0xd3, 0xf8, 0x22, 0xd5, 0xf5,
  0xf6, 0xfd, 0xc6, 0x12, 0xfb, 0xe1, 0xe2, 0x18, 0x19, 0x2b, 0xab, 0x06,
  0xf3, 0x0f, 0xb4, 0x3e, 0x22, 0x18, 0x81, 0x1c, 0x32, 0x4c, 0x81, 0x10,
  0x81, 0x94, 0xe7, 0xc7, 0xab, 0xaa, 0xd5, 0xf6, 0xc8, 0xe7, 0x10, 0x0a,
  0xdd, 0xef, 0xdc, 0x5b, 0xe3, 0xd5, 0x1e, 0x33, 0xe6, 0xda, 0xfc, 0x3d,
  0xfe, 0xb9, 0x2b, 0x1d, 0xe1, 0xe2, 0xd6, 0xe4, 0xec, 0xd6, 0xe7, 0x35,
  0x1b, 0xcc, 0x2a, 0xf6, 0x02, 0xf4, 0xe1, 0xd2, 0xb5, 0xe2, 0x37, 0xe8,
  0xf5, 0x27, 0x24, 0x34, 0xa4, 0xbc, 0x1e, 0x22, 0xae, 0xf2, 0xe1, 0xf4,
  0xef, 0xdc, 0xe9, 0x3a, 0xaf, 0xff, 0x19, 0x0a, 0xfa, 0xb4, 0x0e, 0xfe,
  0xb7, 0xef, 0xc4, 0x58, 0xcf, 0xe3, 0x1a, 0x4d, 0xb2, 0xc8, 0x01, 0x1d,
  0xca, 0x0a, 0x21, 0x62, 0xbb, 0xe1, 0x2d, 0x1e, 0xf9, 0xfd, 0x29, 0x48,
  0x0b, 0x3a, 0x05, 0x04, 0x07, 0x1a, 0xd1, 0xef, 0x1d, 0x48, 0x2c, 0x0a,
  0x12, 0x2d, 0xeb, 0xb8, 0xfe, 0x2e, 0xe0, 0xa3, 0xda, 0xe2, 0xfa, 0xd6,
  0x18, 0x38, 0x2c, 0xcb, 0x09, 0x13, 0x2f, 0xdb, 0xe9, 0x4a, 0xe3, 0x97,
  0x27, 0x05, 0x09, 0xbb, 0x3f, 0x33, 0x23, 0xf8, 0xf8, 0xc8, 0xf3, 0xfc,
  0xe0, 0x1a, 0xed, 0xd4, 0x13, 0xd0, 0x13, 0x05, 0xcc, 0xbf, 0xf2, 0x25,
  0x09, 0x93, 0x45, 0x16, 0x1a, 0xba, 0x9f, 0xdc, 0x12, 0x17, 0xbf, 0x0c,
  0x47, 0x35, 0xb9, 0x05, 0x39, 0x50, 0xae, 0x3a, 0xf4, 0x24, 0xef, 0xe4,
  0xe6, 0x28, 0xe1, 0x2a, 0xf2, 0x61, 0xe8, 0x44, 0x32, 0x4c, 0xcc, 0x3d,
  0xfd, 0x11, 0xd8, 0xe3, 0x1e, 0x6e, 0x25, 0x08, 0x1c, 0x3f, 0x04, 0x0b,
  0xd0, 0x5d, 0x5a, 0xd8, 0xe7, 0x33, 0x13, 0xf6, 0xcc, 0x3f, 0x17, 0xc7,
  0xd0, 0xd9, 0x4a, 0xca, 0xa3, 0xf9, 0x57, 0xff, 0xf6, 0x1c, 0x14, 0xf5,
  0xe2, 0xd7, 0xf8, 0xef, 0x38, 0xcc, 0x3a, 0xe0, 0x37, 0xcf, 0xf8, 0x2e,
  0xf1, 0xc0, 0xec, 0x0a, 0x01, 0x0d, 0xef, 0xec, 0x0e, 0xc5, 0xd1, 0x3c,
  0x2f, 0x45, 0xb3, 0x07, 0x33, 0xf8, 0xfb, 0xcf, 0xcc, 0x2a, 0xcb, 0x12,
  0x3a, 0x23, 0xbf, 0xe4, 0x23, 0x5c, 0x1d, 0xf2, 0x06, 0x58, 0x01, 0xe3,
  0xe6, 0x7f, 0x36, 0xe4, 0xf8, 0x25, 0xeb, 0x1d, 0x24, 0x54, 0x48, 0xfe,
  0xd2, 0x74, 0xf6, 0x02, 0xf6, 0x57, 0x2d, 0x26, 0xd7, 0x19, 0x09, 0x0a,
  0x01, 0x50, 0x4a, 0xe3, 0xd8, 0x0a, 0xea, 0xc1, 0xee, 0xfe, 0x26, 0xce,
  0x17, 0xf9, 0x35, 0xcb, 0x20, 0xea, 0xe7, 0x0f, 0xf3, 0xfa, 0x7f, 0x04,
  0xaf, 0xcc, 0x2f, 0xe7, 0xf5, 0x01, 0x56, 0x01, 0x2a, 0x81, 0x23, 0xae,
  0x0d, 0xd6, 0xe1, 0xc5, 0x02, 0xb5, 0xfe, 0xf9, 0x5f, 0xd0, 0x9c, 0xff,
  0x69, 0xf9, 0xca, 0xcb, 0x51, 0x2c, 0xcc, 0x27, 0x45, 0x43, 0xd4, 0x2c,
  0x4b, 0x15, 0x1f, 0xfb, 0x30, 0x39, 0x2e, 0x1e, 0x1d, 0xf7, 0xf2, 0xec,
  0xff, 0xfe, 0xe5, 0x01, 0xcc, 0xfe, 0x00, 0x10, 0x42, 0x3e, 0x32, 0x4d,
  0x24, 0xf9, 0x05, 0xfd, 0xf3, 0x4e, 0xf8, 0xd7, 0xec, 0x32, 0x28, 0xfe,
  0xb9, 0x5e, 0x0f, 0x0e, 0xc4, 0x02, 0x37, 0x16, 0xf4, 0xf9, 0x50, 0xde,
  0xb8, 0x2a, 0x4c, 0x19, 0xc3, 0x08, 0xef, 0x1c, 0x03, 0x02, 0xe7, 0xe8,
  0x0a, 0xf5, 0xd4, 0x28, 0x3d, 0x4e, 0xfd, 0xd7, 0x09, 0x15, 0xcd, 0x20,
  0xfe, 0x04, 0x02, 0x26, 0x15, 0x30, 0x0f, 0x20, 0xf4, 0xf3, 0x19, 0x23,
  0xff, 0x05, 0x2a, 0xd9, 0xbf, 0xd5, 0x1c, 0xcc, 0xe1, 0xfc, 0x26, 0xe1,
  0xf0, 0x18, 0xe4, 0xc7, 0xcb, 0x04, 0x1b, 0xf9, 0x17, 0xea, 0xb6, 0xc4,
  0x35, 0xf4, 0xcf, 0x12, 0x1b, 0xf7, 0xab, 0xcd, 0xee, 0x16, 0xf1, 0xa3,
  0xd4, 0x35, 0x20, 0x1a, 0x18, 0xf7, 0x0e, 0xe1, 0xf3, 0x19, 0xf5, 0xc1,
  0xd1, 0x25, 0x0d, 0x03, 0xe5, 0x3a, 0x00, 0x0b, 0xe8, 0x22, 0xf2, 0x0b,
  0x34, 0x03, 0x2d, 0xd3, 0xff, 0x14, 0x46, 0xfe, 0xe9, 0xec, 0x48, 0xe8,
  0x2b, 0xce, 0x07, 0xec, 0x36, 0xe6, 0x0b, 0x0d, 0x39, 0xc1, 0x10, 0x14,
  0x2f, 0xe9, 0x07, 0x0a, 0x31, 0xf8, 0xed, 0xf8, 0x03, 0x17, 0xdb, 0xec,
  0x20, 0x4b, 0xf3, 0x05, 0x15, 0x67, 0xf3, 0xf9, 0xef, 0x20, 0x01, 0xee,
  0xec, 0x2f, 0xdc, 0xca, 0xd7, 0x59, 0xed, 0xf4, 0xb8, 0x3c, 0x10, 0xfe,
  0xcf, 0x16, 0x00, 0xde, 0xe4, 0xee, 0x0b, 0xf7, 0xde, 0x1d, 0x15, 0x0f,
  0xca, 0xf3, 0xff, 0xe4, 0x0f, 0x09, 0xe3, 0x1a, 0x08, 0x10, 0x03, 0xcf,
  0xf9, 0xfb, 0x15, 0x0b, 0xfa, 0xe2, 0xf9, 0x05, 0xe6, 0xf9, 0xee, 0x12,
  0xdc, 0xfe, 0x18, 0xeb, 0xfa, 0x09, 0x06, 0xea, 0x29, 0x0b, 0x15, 0x18,
  0xfa, 0xd6, 0x27, 0xda, 0x41, 0xf0, 0x55, 0xf0, 0x02, 0xd5, 0x27, 0xd0,
  0x07, 0xd5, 0x1f, 0xe7, 0xf5, 0xa9, 0x23, 0xec, 0x16, 0x8d, 0xf1, 0xff,
  0x24, 0x81, 0xd2, 0xbc, 0xef, 0x7f, 0xf8, 0x0b, 0xf5, 0x35, 0xfb, 0xe1,
  0x09, 0x37, 0x16, 0x06, 0xba, 0x5b, 0xf4, 0x14, 0xee, 0x40, 0x07, 0xfb,
  0xf1, 0x47, 0xf2, 0xfc, 0xf6, 0x4b, 0x07, 0x09, 0x09, 0x25, 0x2b, 0xf8,
  0x00, 0x2a, 0x03, 0xe8, 0x10, 0x16, 0x20, 0xfc, 0x26, 0x38, 0x0d, 0xeb,
  0x18, 0x30, 0xf7, 0x00, 0xf4, 0x23, 0x1e, 0xf8, 0x22, 0x13, 0x05, 0x09,
  0xf1, 0x05, 0x24, 0x1b, 0x32, 0x24, 0x27, 0x01, 0x26, 0x1c, 0x30, 0x00,
  0xeb, 0xee, 0x11, 0xf9, 0x2b, 0xfc, 0x36, 0x1f, 0xfd, 0x0f, 0x26, 0x14,
  0xf8, 0x06, 0x13, 0xfd, 0x20, 0xf2, 0x29, 0x06, 0xee, 0xe1, 0x44, 0xf7,
  0x1c, 0x06, 0x3c, 0xfe, 0x1d, 0xe1, 0x1e, 0x1c, 0x00, 0xe9, 0x24, 0xed,
  0x15, 0xcb, 0x1d, 0xf1, 0x16, 0xcd, 0x1b, 0x1a, 0x07, 0xe2, 0x14, 0x19,
  0x1e, 0x02, 0x01, 0x02, 0x05, 0xf1, 0x22, 0xf6, 0x16, 0xe7, 0x19, 0x18,
  0x29, 0xd1, 0x26, 0x0d, 0xf4, 0xef, 0xef, 0x09, 0x0e, 0xd0, 0x30, 0x16,
  0x2f, 0x02, 0x01, 0xea, 0x0a, 0xf2, 0x0c, 0x15, 0xf7, 0xfa, 0xec, 0x07,
  0x14, 0x17, 0x0c, 0xe2, 0xdd, 0xf5, 0x00, 0xdb, 0xd9, 0xf8, 0x62, 0x63,
  0x0c, 0x17, 0x65, 0x76, 0xc1, 0xce, 0x3f, 0x16, 0xbb, 0xc0, 0x5e, 0x1a,
  0xd8, 0x0b, 0x1e, 0x45, 0x10, 0x0b, 0xe9, 0xed, 0x11, 0x00, 0xdb, 0xea,
  0x1c, 0x61, 0xad, 0xc8, 0x64, 0xfe, 0xaf, 0xa0, 0x6a, 0x4c, 0xca, 0x1a,
  0xf5, 0xef, 0x22, 0xc2, 0xf2, 0xeb, 0xd8, 0xc7, 0x53, 0xb5, 0x2d, 0x9c,
  0xf4, 0x92, 0x00, 0xa0, 0xc5, 0x05, 0x23, 0x28, 0x21, 0xcc, 0xef, 0xe5,
  0x1c, 0xce, 0xb4, 0xc6, 0x19, 0xfd, 0xac, 0x28, 0x29, 0x12, 0xa8, 0x03,
  0x50, 0x5b, 0x28, 0x24, 0xf8, 0x2f, 0x39, 0x31, 0x51, 0x77, 0xda, 0xc0,
  0xe3, 0x1b, 0x55, 0xf5, 0x3c, 0xd1, 0xe9, 0xb4, 0xd8, 0xe8, 0xda, 0x16,
  0xf6, 0x8d, 0xe3, 0xb4, 0xe1, 0xda, 0xce, 0x02, 0xda, 0x0a, 0xa5, 0xde,
  0x09, 0xdf, 0xdb, 0x04, 0x08, 0x3d, 0xaa, 0xfb, 0x3a, 0x37, 0xca, 0xeb,
  0x23, 0x7f, 0x35, 0x5c, 0x6b, 0x14, 0x36, 0x1d, 0x08, 0x22, 0x25, 0x3e,
  0x11, 0x10, 0xfd, 0xdb, 0x2f, 0xdd, 0x74, 0x29, 0x10, 0x0c, 0x5b, 0x45,
  0x3d, 0xd0, 0x1f, 0x18, 0xd3, 0x28, 0x0f, 0x13, 0xea, 0x09, 0x4c, 0x50,
  0x07, 0xff, 0x15, 0xb6, 0xde, 0xce, 0xfd, 0x23, 0xb3, 0x07, 0x1b, 0x22,
  0xd1, 0xed, 0x16, 0x29, 0xac, 0xe3, 0xfe, 0x15, 0xb7, 0xd4, 0x16, 0xed,
  0xb4, 0xf2, 0x2e, 0x0a, 0xb6, 0xec, 0x13, 0x1d, 0xcb, 0xe5, 0x1a, 0xfe,
  0xe8, 0xcc, 0x01, 0x07, 0xf5, 0xdb, 0xeb, 0x1c, 0xef, 0xec, 0x16, 0x07,
  0xe5, 0xfe, 0xfe, 0x1f, 0xcd, 0xe2, 0xf9, 0x03, 0xab, 0x40, 0x1c, 0xe2,
  0xbd, 0x26, 0xd5, 0x0e, 0xaa, 0xf8, 0x18, 0xf4, 0xa2, 0x0b, 0xd5, 0xfc,
  0xce, 0xdf, 0xd7, 0xfd, 0xbf, 0x38, 0xe3, 0xd4, 0xe2, 0x17, 0xec, 0xd2,
  0xa4, 0x05, 0x0b, 0xd9, 0xda, 0xfe, 0x13, 0x04, 0x95, 0x04, 0x19, 0x16,
  0x8d, 0xf6, 0xf4, 0x03, 0xa6, 0x24, 0x22, 0x12, 0x81, 0xfe, 0x1f, 0x00,
  0xd4, 0xd7, 0x0d, 0xe5, 0xb5, 0x9f, 0x0c, 0x31, 0x07, 0xe8, 0x1c, 0x21,
  0xcc, 0xef, 0x05, 0xfe, 0xf1, 0x15, 0x11, 0x00, 0xbb, 0x02, 0x29, 0x0f,
  0xc7, 0xfb, 0xe2, 0xd8, 0xe7, 0xe3, 0xe3, 0x18, 0xc4, 0xfb, 0xfd, 0xec,
  0xae, 0x26, 0xd1, 0xeb, 0xd6, 0x08, 0xe2, 0x07, 0xcf, 0xff, 0xf3, 0xfc,
  0xc0, 0x25, 0xca, 0xc9, 0xea, 0xfa, 0xff, 0xff, 0x04, 0x00, 0x00, 0x00,
  0x80, 0x00, 0x00, 0x00, 0xb9, 0xf2, 0xff, 0xff, 0x97, 0x0e, 0x00, 0x00,
  0x51, 0xf8, 0xff, 0xff, 0x4f, 0xfe, 0xff, 0xff, 0xcf, 0xfc, 0xff, 0xff,
  0xb8, 0xf8, 0xff, 0xff, 0xa2, 0xfc, 0xff, 0xff, 0xa4, 0x19, 0x00, 0x00,
  0x7d, 0x05, 0x00, 0x00, 0xe9, 0x09, 0x00, 0x00, 0x2d, 0x07, 0x00, 0x00,
  0xf0, 0xfa, 0xff, 0xff, 0xf4, 0x18, 0x00, 0x00, 0x0e, 0x15, 0x00, 0x00,
  0x8d, 0x00, 0x00, 0x00, 0x0b, 0x14, 0x00, 0x00, 0x46, 0x03, 0x00, 0x00,
  0x10, 0xfe, 0xff, 0xff, 0x2e, 0xff, 0xff, 0xff, 0x03, 0xfa, 0xff, 0xff,
  0x60, 0xf8, 0xff, 0xff, 0x2f, 0xfd, 0xff, 0xff, 0x48, 0x02, 0x00, 0x00,
  0x9f, 0x1b, 0x00, 0x00, 0xb7, 0x04, 0x00, 0x00, 0x9b, 0xfa, 0xff, 0xff,
  0x39, 0xfc, 0xff, 0xff, 0x2b, 0xfa, 0xff, 0xff, 0x96, 0x01, 0x00, 0x00,
  0x06, 0x0c, 0x00, 0x00, 0xb2, 0xfb, 0xff, 0xff, 0x34, 0xf2, 0xff, 0xff,
  0x76, 0xfb, 0xff, 0xff, 0x04, 0x00, 0x00, 0x00, 0x00, 0x02, 0x00, 0x00,
  0x4e, 0x1f, 0xf2, 0x85, 0x0c, 0x1d, 0x0e, 0x06, 0xd3, 0xb7, 0xe1, 0xaf,
  0xe0, 0x3b, 0x9b, 0x5a, 0x28, 0x81, 0x18, 0xd1, 0xc3, 0x25, 0xe3, 0x55,
  0x0c, 0xf0, 0xf6, 0x20, 0x40, 0x11, 0xf8, 0x1e, 0xde, 0x33, 0x12, 0xd5,
  0x13, 0xd7, 0xad, 0x4e, 0x20, 0xc5, 0xc5, 0x31, 0x5b, 0x1f, 0xca, 0xf1,
  0x26, 0xf4, 0xe0, 0xf5, 0xa7, 0x07, 0xd7, 0x58, 0x0c, 0x81, 0xa0, 0x90,
  0xcc, 0x61, 0xdb, 0xbe, 0x55, 0xad, 0x25, 0x7f, 0x65, 0x4b, 0x2c, 0xc0,
  0x44, 0x14, 0xf7, 0x61, 0x28, 0xd1, 0xf4, 0x04, 0x55, 0x7d, 0xeb, 0x0f,
  0x37, 0xfd, 0xf9, 0xfe, 0xcc, 0x4a, 0xf8, 0x14, 0xe3, 0xb3, 0xeb, 0x67,
  0xdc, 0x2e, 0x81, 0xed, 0xb9, 0x48, 0x2a, 0x76, 0xd2, 0x81, 0x17, 0xb6,
  0x5d, 0xd8, 0x07, 0x67, 0xd1, 0x4f, 0x00, 0x2b, 0xa3, 0x04, 0xd6, 0x59,
  0x4e, 0xb3, 0x4c, 0xf9, 0x19, 0x4c, 0x08, 0xd7, 0x37, 0x08, 0x0f, 0x57,
  0x72, 0x17, 0x15, 0xc2, 0x14, 0x5d, 0x15, 0x3a, 0x4f, 0x2d, 0xd0, 0x91,
  0xf7, 0xc4, 0x19, 0x13, 0x2d, 0xfb, 0x27, 0x94, 0x1a, 0x56, 0x56, 0x34,
  0xd8, 0x81, 0x24, 0x29, 0xbc, 0x41, 0xdb, 0xfa, 0xef, 0xc1, 0xde, 0x17,
  0x0b, 0x0c, 0xfe, 0xe3, 0x0d, 0x30, 0xee, 0xdc, 0xf7, 0x03, 0xc7, 0xf4,
  0x15, 0xe4, 0x1a, 0xfb, 0xed, 0xb4, 0x0f, 0xf6, 0x02, 0x13, 0xd6, 0x81,
  0x1a, 0x45, 0x93, 0x3c, 0x52, 0x91, 0x08, 0x22, 0xe7, 0x24, 0xc4, 0x33,
  0x93, 0x9c, 0xf8, 0x31, 0xb8, 0xd4, 0x15, 0x81, 0xa2, 0xdd, 0xc6, 0x45,
  0xc8, 0x36, 0x31, 0x14, 0xf8, 0x27, 0x35, 0xe3, 0x0a, 0x7f, 0xc9, 0x63,
  0xf5, 0x0f, 0x13, 0xb2, 0x0b, 0xe8, 0x72, 0x42, 0x33, 0xbf, 0x40, 0x0b,
  0x11, 0x09, 0xf9, 0x4f, 0xf1, 0x14, 0x42, 0x2e, 0x55, 0x2d, 0xba, 0xcf,
  0x0d, 0x05, 0x76, 0x0f, 0xab, 0x31, 0xb8, 0x07, 0x81, 0x04, 0x4f, 0x40,
  0xbd, 0xdd, 0x3a, 0x01, 0xf2, 0xbb, 0x46, 0xc2, 0xb6, 0x04, 0xf4, 0xfc,
  0xef, 0x48, 0xdc, 0xb9, 0x05, 0xdf, 0x66, 0x19, 0x1a, 0x45, 0x1d, 0x2f,
  0xf9, 0x17, 0x34, 0x53, 0xa5, 0x9a, 0xc9, 0xd2, 0xe0, 0x52, 0x59, 0xef,
  0xd5, 0xd2, 0x1f, 0xe5, 0x2f, 0xad, 0x87, 0x16, 0x49, 0x4b, 0x55, 0x11,
  0x57, 0x0b, 0x4f, 0xbd, 0x81, 0x5c, 0xf3, 0x02, 0xc9, 0x25, 0x0b, 0x1a,
  0x3f, 0xb0, 0x93, 0x02, 0x06, 0x49, 0x1a, 0x09, 0x7f, 0x2e, 0xc7, 0x14,
  0xc4, 0x1b, 0x13, 0x11, 0x70, 0xcf, 0x67, 0x5f, 0x36, 0xd3, 0xbb, 0x8d,
  0xce, 0xcf, 0xd2, 0x0e, 0x36, 0xb5, 0x7f, 0x1d, 0x71, 0x37, 0xea, 0xc8,
  0x2f, 0xca, 0x0f, 0x67, 0x3c, 0xca, 0x1d, 0xe0, 0x07, 0x33, 0x07, 0x4a,
  0x4c, 0xf8, 0x20, 0x09, 0x07, 0xd2, 0x19, 0xf3, 0xd3, 0xdf, 0xe1, 0x3c,
  0x33, 0x13, 0x29, 0x2a, 0x69, 0xad, 0xf1, 0x34, 0x33, 0x5c, 0x2d, 0xc2,
  0x23, 0x27, 0xe1, 0x58, 0x7f, 0x50, 0x57, 0xa5, 0x05, 0xb0, 0x53, 0x09,
  0x94, 0xbc, 0xed, 0xb8, 0xec, 0x23, 0xd9, 0xf4, 0x26, 0x32, 0x47, 0xca,
  0x06, 0x54, 0xc2, 0x91, 0x45, 0x12, 0x96, 0x46, 0xe9, 0xaf, 0x43, 0x9d,
  0xca, 0x5e, 0xdd, 0xc9, 0xc3, 0xb7, 0xf5, 0x7f, 0x16, 0xa4, 0xe4, 0x1e,
  0xac, 0xbc, 0x20, 0xf2, 0xde, 0x09, 0xad, 0xd2, 0xe3, 0xef, 0xb5, 0x18,
  0xb5, 0x08, 0x36, 0xe7, 0x95, 0xe7, 0x29, 0x5c, 0xda, 0xd3, 0x72, 0x54,
  0x14, 0x51, 0x17, 0x7f, 0x54, 0xcf, 0x41, 0x55, 0xb8, 0x4a, 0x4c, 0xf3,
  0x81, 0xfc, 0xdf, 0x34, 0x11, 0xe4, 0xef, 0x07, 0xe7, 0x20, 0x3d, 0x41,
  0xbd, 0x3c, 0xd4, 0x43, 0x2c, 0xdf, 0x1d, 0x08, 0x08, 0x13, 0x1c, 0x04,
  0xfa, 0x70, 0xfc, 0xcc, 0xe9, 0x1f, 0xce, 0xe2, 0x82, 0xfd, 0xff, 0xff,
  0x04, 0x00, 0x00, 0x00, 0x40, 0x00, 0x00, 0x00, 0x6f, 0x03, 0x00, 0x00,
  0x78, 0x04, 0x00, 0x00, 0x58, 0xfd, 0xff, 0xff, 0xc5, 0x05, 0x00, 0x00,
  0x50, 0xfe, 0xff, 0xff, 0x40, 0x01, 0x00, 0x00, 0x5a, 0x00, 0x00, 0x00,
  0xf1, 0xfd, 0xff, 0xff, 0xec, 0x00, 0x00, 0x00, 0x89, 0x01, 0x00, 0x00,
  0x10, 0x04, 0x00, 0x00, 0x71, 0xfd, 0xff, 0xff, 0x09, 0x01, 0x00, 0x00,
  0x83, 0x03, 0x00, 0x00, 0x98, 0xfe, 0xff, 0xff, 0x18, 0x00, 0x00, 0x00,
  0xce, 0xfd, 0xff, 0xff, 0x04, 0x00, 0x00, 0x00, 0x40, 0x00, 0x00, 0x00,
  0x4f, 0xde, 0x0d, 0xdb, 0x0e, 0x93, 0x90, 0x4e, 0x81, 0x42, 0x44, 0x36,
  0x49, 0x04, 0x36, 0x6d, 0xf3, 0x5d, 0xf0, 0x34, 0x23, 0x7f, 0x3d, 0xc9,
  0x01, 0x06, 0x42, 0xfa, 0x33, 0x2b, 0x9b, 0xde, 0xfa, 0x81, 0x99, 0x1c,
  0xda, 0xce, 0x1e, 0x19, 0x42, 0xf5, 0xcc, 0xdc, 0xbf, 0xf0, 0x29, 0xfd,
  0xc9, 0x1e, 0x59, 0xb4, 0x1c, 0x93, 0x1c, 0x33, 0x33, 0xb0, 0x97, 0x5d,
  0x10, 0x81, 0xeb, 0xba, 0x1a, 0xfe, 0xff, 0xff, 0x04, 0x00, 0x00, 0x00,
  0x10, 0x00, 0x00, 0x00, 0x17, 0x00, 0x00, 0x00, 0xec, 0x00, 0x00, 0x00,
  0x6b, 0x00, 0x00, 0x00, 0x34, 0xfd, 0xff, 0xff, 0x36, 0xfe, 0xff, 0xff,
  0x04, 0x00, 0x00, 0x00, 0x04, 0x00, 0x00, 0x00, 0xa0, 0x00, 0x00, 0x00,
  0x46, 0xfe, 0xff, 0xff, 0x04, 0x00, 0x00, 0x00, 0x04, 0x00, 0x00, 0x00,
  0x01, 0x00, 0x00, 0x00, 0x56, 0xfe, 0xff, 0xff, 0x04, 0x00, 0x00, 0x00,
  0x04, 0x00, 0x00, 0x00, 0x00, 0x00, 0x00, 0x00, 0xc4, 0xf1, 0xff, 0xff,
  0xc8, 0xf1, 0xff, 0xff, 0x0f, 0x00, 0x00, 0x00, 0x4d, 0x4c, 0x49, 0x52,
  0x20, 0x43, 0x6f, 0x6e, 0x76, 0x65, 0x72, 0x74, 0x65, 0x64, 0x2e, 0x00,
  0x01, 0x00, 0x00, 0x00, 0x14, 0x00, 0x00, 0x00, 0x00, 0x00, 0x0e, 0x00,
  0x18, 0x00, 0x14, 0x00, 0x10, 0x00, 0x0c, 0x00, 0x08, 0x00, 0x04, 0x00,
  0x0e, 0x00, 0x00, 0x00, 0x14, 0x00, 0x00, 0x00, 0x1c, 0x00, 0x00, 0x00,
  0x1c, 0x02, 0x00, 0x00, 0x20, 0x02, 0x00, 0x00, 0x24, 0x02, 0x00, 0x00,
  0x04, 0x00, 0x00, 0x00, 0x6d, 0x61, 0x69, 0x6e, 0x00, 0x00, 0x00, 0x00,
  0x08, 0x00, 0x00, 0x00, 0xcc, 0x01, 0x00, 0x00, 0x6c, 0x01, 0x00, 0x00,
  0x1c, 0x01, 0x00, 0x00, 0xf4, 0x00, 0x00, 0x00, 0xac, 0x00, 0x00, 0x00,
  0x70, 0x00, 0x00, 0x00, 0x38, 0x00, 0x00, 0x00, 0x04, 0x00, 0x00, 0x00,
  0xbe, 0xfe, 0xff, 0xff, 0x14, 0x00, 0x00, 0x00, 0x00, 0x00, 0x00, 0x09,
  0x14, 0x00, 0x00, 0x00, 0x18, 0x00, 0x00, 0x00, 0x05, 0x00, 0x00, 0x00,
  0xfa, 0xfe, 0xff, 0xff, 0x00, 0x00, 0x80, 0x3f, 0x01, 0x00, 0x00, 0x00,
  0x11, 0x00, 0x00, 0x00, 0x01, 0x00, 0x00, 0x00, 0x10, 0x00, 0x00, 0x00,
  0xee, 0xfe, 0xff, 0xff, 0x14, 0x00, 0x00, 0x00, 0x00, 0x00, 0x00, 0x08,
  0x10, 0x00, 0x00, 0x00, 0x14, 0x00, 0x00, 0x00, 0x04, 0x00, 0x00, 0x00,
  0x88, 0xf2, 0xff, 0xff, 0x01, 0x00, 0x00, 0x00, 0x10, 0x00, 0x00, 0x00,
  0x03, 0x00, 0x00, 0x00, 0x0f, 0x00, 0x00, 0x00, 0x05, 0x00, 0x00, 0x00,
  0x04, 0x00, 0x00, 0x00, 0x22, 0xff, 0xff, 0xff, 0x14, 0x00, 0x00, 0x00,
  0x00, 0x00, 0x00, 0x08, 0x14, 0x00, 0x00, 0x00, 0x18, 0x00, 0x00, 0x00,
  0x04, 0x00, 0x00, 0x00, 0xba, 0xfe, 0xff, 0xff, 0x00, 0x00, 0x00, 0x01,
  0x01, 0x00, 0x00, 0x00, 0x0f, 0x00, 0x00, 0x00, 0x03, 0x00, 0x00, 0x00,
  0x0e, 0x00, 0x00, 0x00, 0x07, 0x00, 0x00, 0x00, 0x06, 0x00, 0x00, 0x00,
  0x5a, 0xff, 0xff, 0xff, 0x14, 0x00, 0x00, 0x00, 0x00, 0x00, 0x00, 0x08,
  0x14, 0x00, 0x00, 0x00, 0x18, 0x00, 0x00, 0x00, 0x04, 0x00, 0x00, 0x00,
  0xf2, 0xfe, 0xff, 0xff, 0x00, 0x00, 0x00, 0x01, 0x01, 0x00, 0x00, 0x00,
  0x0e, 0x00, 0x00, 0x00, 0x03, 0x00, 0x00, 0x00, 0x0d, 0x00, 0x00, 0x00,
  0x09, 0x00, 0x00, 0x00, 0x08, 0x00, 0x00, 0x00, 0x00, 0x00, 0x0a, 0x00,
  0x10, 0x00, 0x0c, 0x00, 0x08, 0x00, 0x04, 0x00, 0x0a, 0x00, 0x00, 0x00,
  0x0c, 0x00, 0x00, 0x00, 0x10, 0x00, 0x00, 0x00, 0x03, 0x00, 0x00, 0x00,
  0x01, 0x00, 0x00, 0x00, 0x0d, 0x00, 0x00, 0x00, 0x02, 0x00, 0x00, 0x00,
  0x00, 0x00, 0x00, 0x00, 0x0c, 0x00, 0x00, 0x00, 0xc2, 0xff, 0xff, 0xff,
  0x1c, 0x00, 0x00, 0x00, 0x00, 0x00, 0x00, 0x3b, 0x1c, 0x00, 0x00, 0x00,
  0x20, 0x00, 0x00, 0x00, 0x02, 0x00, 0x00, 0x00, 0x00, 0x00, 0x06, 0x00,
  0x08, 0x00, 0x04, 0x00, 0x06, 0x00, 0x00, 0x00, 0x02, 0x00, 0x00, 0x00,
  0x01, 0x00, 0x00, 0x00, 0x0c, 0x00, 0x00, 0x00, 0x02, 0x00, 0x00, 0x00,
  0x0b, 0x00, 0x00, 0x00, 0x03, 0x00, 0x00, 0x00, 0x00, 0x00, 0x0e, 0x00,
  0x1a, 0x00, 0x14, 0x00, 0x10, 0x00, 0x0c, 0x00, 0x0b, 0x00, 0x04, 0x00,
  0x0e, 0x00, 0x00, 0x00, 0x24, 0x00, 0x00, 0x00, 0x00, 0x00, 0x00, 0x20,
  0x24, 0x00, 0x00, 0x00, 0x28, 0x00, 0x00, 0x00, 0x01, 0x00, 0x00, 0x00,
  0x00, 0x00, 0x0e, 0x00, 0x08, 0x00, 0x00, 0x00, 0x00, 0x00, 0x00, 0x00,
  0x00, 0x00, 0x04, 0x00, 0x0e, 0x00, 0x00, 0x00, 0x01, 0x00, 0x00, 0x00,
  0x01, 0x00, 0x00, 0x00, 0x0b, 0x00, 0x00, 0x00, 0x04, 0x00, 0x00, 0x00,
  0x0a, 0x00, 0x00, 0x00, 0x01, 0x00, 0x00, 0x00, 0x02, 0x00, 0x00, 0x00,
  0x02, 0x00, 0x00, 0x00, 0x00, 0x00, 0x0e, 0x00, 0x16, 0x00, 0x00, 0x00,
  0x10, 0x00, 0x0c, 0x00, 0x0b, 0x00, 0x04, 0x00, 0x0e, 0x00, 0x00, 0x00,
  0x18, 0x00, 0x00, 0x00, 0x00, 0x00, 0x00, 0x37, 0x18, 0x00, 0x00, 0x00,
  0x1c, 0x00, 0x00, 0x00, 0x00, 0x00, 0x06, 0x00, 0x08, 0x00, 0x07, 0x00,
  0x06, 0x00, 0x00, 0x00, 0x00, 0x00, 0x00, 0x02, 0x01, 0x00, 0x00, 0x00,
  0x0a, 0x00, 0x00, 0x00, 0x01, 0x00, 0x00, 0x00, 0x00, 0x00, 0x00, 0x00,
  0x01, 0x00, 0x00, 0x00, 0x11, 0x00, 0x00, 0x00, 0x01, 0x00, 0x00, 0x00,
  0x00, 0x00, 0x00, 0x00, 0x12, 0x00, 0x00, 0x00, 0x08, 0x0c, 0x00, 0x00,
  0xac, 0x0b, 0x00, 0x00, 0x54, 0x0b, 0x00, 0x00, 0x18, 0x0b, 0x00, 0x00,
  0x90, 0x0a, 0x00, 0x00, 0x04, 0x0a, 0x00, 0x00, 0xf0, 0x08, 0x00, 0x00,
  0xd4, 0x07, 0x00, 0x00, 0x00, 0x06, 0x00, 0x00, 0x24, 0x04, 0x00, 0x00,
  0xd4, 0x03, 0x00, 0x00, 0x80, 0x03, 0x00, 0x00, 0x28, 0x03, 0x00, 0x00,
  0xa4, 0x02, 0x00, 0x00, 0xe8, 0x01, 0x00, 0x00, 0x24, 0x01, 0x00, 0x00,
  0x80, 0x00, 0x00, 0x00, 0x04, 0x00, 0x00, 0x00, 0x56, 0xf4, 0xff, 0xff,
  0x00, 0x00, 0x00, 0x01, 0x18, 0x00, 0x00, 0x00, 0x20, 0x00, 0x00, 0x00,
  0x3c, 0x00, 0x00, 0x00, 0x12, 0x00, 0x00, 0x00, 0x00, 0x00, 0x00, 0x09,
  0x50, 0x00, 0x00, 0x00, 0x02, 0x00, 0x00, 0x00, 0xff, 0xff, 0xff, 0xff,
  0x04, 0x00, 0x00, 0x00, 0x3c, 0xf4, 0xff, 0xff, 0x08, 0x00, 0x00, 0x00,
  0x10, 0x00, 0x00, 0x00, 0x01, 0x00, 0x00, 0x00, 0x80, 0xff, 0xff, 0xff,
  0xff, 0xff, 0xff, 0xff, 0x01, 0x00, 0x00, 0x00, 0x00, 0x00, 0x80, 0x3b,
  0x1b, 0x00, 0x00, 0x00, 0x53, 0x74, 0x61, 0x74, 0x65, 0x66, 0x75, 0x6c,
  0x50, 0x61, 0x72, 0x74, 0x69, 0x74, 0x69, 0x6f, 0x6e, 0x65, 0x64, 0x43,
  0x61, 0x6c, 0x6c, 0x5f, 0x31, 0x3a, 0x30, 0x00, 0x02, 0x00, 0x00, 0x00,
  0x01, 0x00, 0x00, 0x00, 0x04, 0x00, 0x00, 0x00, 0xce, 0xf4, 0xff, 0xff,
  0x00, 0x00, 0x00, 0x01, 0x18, 0x00, 0x00, 0x00, 0x20, 0x00, 0x00, 0x00,
  0x3c, 0x00, 0x00, 0x00, 0x11, 0x00, 0x00, 0x00, 0x00, 0x00, 0x00, 0x09,
  0x78, 0x00, 0x00, 0x00, 0x02, 0x00, 0x00, 0x00, 0xff, 0xff, 0xff, 0xff,
  0x04, 0x00, 0x00, 0x00, 0xb4, 0xf4, 0xff, 0xff, 0x08, 0x00, 0x00, 0x00,
  0x10, 0x00, 0x00, 0x00, 0x01, 0x00, 0x00, 0x00, 0x10, 0x00, 0x00, 0x00,
  0x00, 0x00, 0x00, 0x00, 0x01, 0x00, 0x00, 0x00, 0xa2, 0xec, 0xac, 0x3e,
  0x42, 0x00, 0x00, 0x00, 0x6d, 0x6c, 0x70, 0x5f, 0x63, 0x6c, 0x73, 0x5f,
  0x33, 0x32, 0x2d, 0x31, 0x36, 0x5f, 0x31, 0x2f, 0x64, 0x65, 0x6e, 0x73,
  0x65, 0x5f, 0x32, 0x5f, 0x31, 0x2f, 0x4d, 0x61, 0x74, 0x4d, 0x75, 0x6c,
  0x3b, 0x6d, 0x6c, 0x70, 0x5f, 0x63, 0x6c, 0x73, 0x5f, 0x33, 0x32, 0x2d,
  0x31, 0x36, 0x5f, 0x31, 0x2f, 0x64, 0x65, 0x6e, 0x73, 0x65, 0x5f, 0x32,
  0x5f, 0x31, 0x2f, 0x42, 0x69, 0x61, 0x73, 0x41, 0x64, 0x64, 0x00, 0x00,
  0x02, 0x00, 0x00, 0x00, 0x01, 0x00, 0x00, 0x00, 0x04, 0x00, 0x00, 0x00,
  0x6e, 0xf5, 0xff, 0xff, 0x00, 0x00, 0x00, 0x01, 0x18, 0x00, 0x00, 0x00,
  0x20, 0x00, 0x00, 0x00, 0x3c, 0x00, 0x00, 0x00, 0x10, 0x00, 0x00, 0x00,
  0x00, 0x00, 0x00, 0x09, 0x98, 0x00, 0x00, 0x00, 0x02, 0x00, 0x00, 0x00,
  0xff, 0xff, 0xff, 0xff, 0x10, 0x00, 0x00, 0x00, 0x54, 0xf5, 0xff, 0xff,
  0x08, 0x00, 0x00, 0x00, 0x10, 0x00, 0x00, 0x00, 0x01, 0x00, 0x00, 0x00,
  0x80, 0xff, 0xff, 0xff, 0xff, 0xff, 0xff, 0xff, 0x01, 0x00, 0x00, 0x00,
  0x36, 0xb4, 0xd6, 0x3d, 0x61, 0x00, 0x00, 0x00, 0x6d, 0x6c, 0x70, 0x5f,
  0x63, 0x6c, 0x73, 0x5f, 0x33, 0x32, 0x2d, 0x31, 0x36, 0x5f, 0x31, 0x2f,
  0x64, 0x65, 0x6e, 0x73, 0x65, 0x5f, 0x31, 0x5f, 0x32, 0x2f, 0x4d, 0x61,
  0x74, 0x4d, 0x75, 0x6c, 0x3b, 0x6d, 0x6c, 0x70, 0x5f, 0x63, 0x6c, 0x73,
  0x5f, 0x33, 0x32, 0x2d, 0x31, 0x36, 0x5f, 0x31, 0x2f, 0x64, 0x65, 0x6e,
  0x73, 0x65, 0x5f, 0x31, 0x5f, 0x32, 0x2f, 0x52, 0x65, 0x6c, 0x75, 0x3b,
  0x6d, 0x6c, 0x70, 0x5f, 0x63, 0x6c, 0x73, 0x5f, 0x33, 0x32, 0x2d, 0x31,
  0x36, 0x5f, 0x31, 0x2f, 0x64, 0x65, 0x6e, 0x73, 0x65, 0x5f, 0x31, 0x5f,
  0x32, 0x2f, 0x42, 0x69, 0x61, 0x73, 0x41, 0x64, 0x64, 0x00, 0x00, 0x00,
  0x02, 0x00, 0x00, 0x00, 0x01, 0x00, 0x00, 0x00, 0x10, 0x00, 0x00, 0x00,
  0x2e, 0xf6, 0xff, 0xff, 0x00, 0x00, 0x00, 0x01, 0x18, 0x00, 0x00, 0x00,
  0x20, 0x00, 0x00, 0x00, 0x3c, 0x00, 0x00, 0x00, 0x0f, 0x00, 0x00, 0x00,
  0x00, 0x00, 0x00, 0x09, 0x90, 0x00, 0x00, 0x00, 0x02, 0x00, 0x00, 0x00,
  0xff, 0xff, 0xff, 0xff, 0x20, 0x00, 0x00, 0x00, 0x14, 0xf6, 0xff, 0xff,
  0x08, 0x00, 0x00, 0x00, 0x10, 0x00, 0x00, 0x00, 0x01, 0x00, 0x00, 0x00,
  0x80, 0xff, 0xff, 0xff, 0xff, 0xff, 0xff, 0xff, 0x01, 0x00, 0x00, 0x00,
  0x15, 0x07, 0xe3, 0x3d, 0x5b, 0x00, 0x00, 0x00, 0x6d, 0x6c, 0x70, 0x5f,
  0x63, 0x6c, 0x73, 0x5f, 0x33, 0x32, 0x2d, 0x31, 0x36, 0x5f, 0x31, 0x2f,
  0x64, 0x65, 0x6e, 0x73, 0x65, 0x5f, 0x31, 0x2f, 0x4d, 0x61, 0x74, 0x4d,
  0x75, 0x6c, 0x3b, 0x6d, 0x6c, 0x70, 0x5f, 0x63, 0x6c, 0x73, 0x5f, 0x33,
  0x32, 0x2d, 0x31, 0x36, 0x5f, 0x31, 0x2f, 0x64, 0x65, 0x6e, 0x73, 0x65,
  0x5f, 0x31, 0x2f, 0x52, 0x65, 0x6c, 0x75, 0x3b, 0x6d, 0x6c, 0x70, 0x5f,
  0x63, 0x6c, 0x73, 0x5f, 0x33, 0x32, 0x2d, 0x31, 0x36, 0x5f, 0x31, 0x2f,
  0x64, 0x65, 0x6e, 0x73, 0x65, 0x5f, 0x31, 0x2f, 0x42, 0x69, 0x61, 0x73,
  0x41, 0x64, 0x64, 0x00, 0x02, 0x00, 0x00, 0x00, 0x01, 0x00, 0x00, 0x00,
  0x20, 0x00, 0x00, 0x00, 0xe6, 0xf6, 0xff, 0xff, 0x00, 0x00, 0x00, 0x01,
  0x18, 0x00, 0x00, 0x00, 0x20, 0x00, 0x00, 0x00, 0x3c, 0x00, 0x00, 0x00,
  0x0e, 0x00, 0x00, 0x00, 0x00, 0x00, 0x00, 0x09, 0x58, 0x00, 0x00, 0x00,
  0x02, 0x00, 0x00, 0x00, 0xff, 0xff, 0xff, 0xff, 0xa0, 0x00, 0x00, 0x00,
  0xcc, 0xf6, 0xff, 0xff, 0x08, 0x00, 0x00, 0x00, 0x10, 0x00, 0x00, 0x00,
  0x01, 0x00, 0x00, 0x00, 0xee, 0xff, 0xff, 0xff, 0xff, 0xff, 0xff, 0xff,
  0x01, 0x00, 0x00, 0x00, 0xd8, 0x2d, 0x17, 0x3d, 0x21, 0x00, 0x00, 0x00,
  0x6d, 0x6c, 0x70, 0x5f, 0x63, 0x6c, 0x73, 0x5f, 0x33, 0x32, 0x2d, 0x31,
  0x36, 0x5f, 0x31, 0x2f, 0x66, 0x6c, 0x61, 0x74, 0x74, 0x65, 0x6e, 0x5f,
  0x31, 0x2f, 0x52, 0x65, 0x73, 0x68, 0x61, 0x70, 0x65, 0x00, 0x00, 0x00,
  0x02, 0x00, 0x00, 0x00, 0x01, 0x00, 0x00, 0x00, 0xa0, 0x00, 0x00, 0x00,
  0xbe, 0xf7, 0xff, 0xff, 0x00, 0x00, 0x00, 0x01, 0x14, 0x00, 0x00, 0x00,
  0x14, 0x00, 0x00, 0x00, 0x0d, 0x00, 0x00, 0x00, 0x00, 0x00, 0x00, 0x02,
  0x34, 0x00, 0x00, 0x00, 0xa8, 0xf7, 0xff, 0xff, 0x27, 0x00, 0x00, 0x00,
  0x6d, 0x6c, 0x70, 0x5f, 0x63, 0x6c, 0x73, 0x5f, 0x33, 0x32, 0x2d, 0x31,
  0x36, 0x5f, 0x31, 0x2f, 0x66, 0x6c, 0x61, 0x74, 0x74, 0x65, 0x6e, 0x5f,
  0x31, 0x2f, 0x52, 0x65, 0x73, 0x68, 0x61, 0x70, 0x65, 0x2f, 0x73, 0x68,
  0x61, 0x70, 0x65, 0x00, 0x01, 0x00, 0x00, 0x00, 0x02, 0x00, 0x00, 0x00,
  0x12, 0xf8, 0xff, 0xff, 0x00, 0x00, 0x00, 0x01, 0x14, 0x00, 0x00, 0x00,
  0x14, 0x00, 0x00, 0x00, 0x0c, 0x00, 0x00, 0x00, 0x00, 0x00, 0x00, 0x02,
  0x34, 0x00, 0x00, 0x00, 0xfc, 0xf7, 0xff, 0xff, 0x27, 0x00, 0x00, 0x00,
  0x6d, 0x6c, 0x70, 0x5f, 0x63, 0x6c, 0x73, 0x5f, 0x33, 0x32, 0x2d, 0x31,
  0x36, 0x5f, 0x31, 0x2f, 0x66, 0x6c, 0x61, 0x74, 0x74, 0x65, 0x6e, 0x5f,
  0x31, 0x2f, 0x73, 0x74, 0x72, 0x69, 0x64, 0x65, 0x64, 0x5f, 0x73, 0x6c,
  0x69, 0x63, 0x65, 0x00, 0x00, 0x00, 0x00, 0x00, 0x62, 0xf8, 0xff, 0xff,
  0x00, 0x00, 0x00, 0x01, 0x14, 0x00, 0x00, 0x00, 0x14, 0x00, 0x00, 0x00,
  0x0b, 0x00, 0x00, 0x00, 0x00, 0x00, 0x00, 0x02, 0x2c, 0x00, 0x00, 0x00,
  0x4c, 0xf8, 0xff, 0xff, 0x1f, 0x00, 0x00, 0x00, 0x6d, 0x6c, 0x70, 0x5f,
  0x63, 0x6c, 0x73, 0x5f, 0x33, 0x32, 0x2d, 0x31, 0x36, 0x5f, 0x31, 0x2f,
  0x66, 0x6c, 0x61, 0x74, 0x74, 0x65, 0x6e, 0x5f, 0x31, 0x2f, 0x53, 0x68,
  0x61, 0x70, 0x65, 0x00, 0x01, 0x00, 0x00, 0x00, 0x03, 0x00, 0x00, 0x00,
  0xae, 0xf8, 0xff, 0xff, 0x00, 0x00, 0x00, 0x01, 0x14, 0x00, 0x00, 0x00,
  0xa8, 0x01, 0x00, 0x00, 0x0a, 0x00, 0x00, 0x00, 0x00, 0x00, 0x00, 0x09,
  0xb4, 0x01, 0x00, 0x00, 0x2c, 0xf8, 0xff, 0xff, 0x08, 0x00, 0x00, 0x00,
  0x0c, 0x01, 0x00, 0x00, 0x20, 0x00, 0x00, 0x00, 0x00, 0x00, 0x00, 0x00,
  0x00, 0x00, 0x00, 0x00, 0x00, 0x00, 0x00, 0x00, 0x00, 0x00, 0x00, 0x00,
  0x00, 0x00, 0x00, 0x00, 0x00, 0x00, 0x00, 0x00, 0x00, 0x00, 0x00, 0x00,
  0x00, 0x00, 0x00, 0x00, 0x00, 0x00, 0x00, 0x00, 0x00, 0x00, 0x00, 0x00,
  0x00, 0x00, 0x00, 0x00, 0x00, 0x00, 0x00, 0x00, 0x00, 0x00, 0x00, 0x00,
  0x00, 0x00, 0x00, 0x00, 0x00, 0x00, 0x00, 0x00, 0x00, 0x00, 0x00, 0x00,
  0x00, 0x00, 0x00, 0x00, 0x00, 0x00, 0x00, 0x00, 0x00, 0x00, 0x00, 0x00,
  0x00, 0x00, 0x00, 0x00, 0x00, 0x00, 0x00, 0x00, 0x00, 0x00, 0x00, 0x00,
  0x00, 0x00, 0x00, 0x00, 0x00, 0x00, 0x00, 0x00, 0x00, 0x00, 0x00, 0x00,
  0x00, 0x00, 0x00, 0x00, 0x00, 0x00, 0x00, 0x00, 0x00, 0x00, 0x00, 0x00,
  0x00, 0x00, 0x00, 0x00, 0x00, 0x00, 0x00, 0x00, 0x00, 0x00, 0x00, 0x00,
  0x00, 0x00, 0x00, 0x00, 0x00, 0x00, 0x00, 0x00, 0x00, 0x00, 0x00, 0x00,
  0x00, 0x00, 0x00, 0x00, 0x00, 0x00, 0x00, 0x00, 0x00, 0x00, 0x00, 0x00,
  0x00, 0x00, 0x00, 0x00, 0x00, 0x00, 0x00, 0x00, 0x00, 0x00, 0x00, 0x00,
  0x00, 0x00, 0x00, 0x00, 0x00, 0x00, 0x00, 0x00, 0x00, 0x00, 0x00, 0x00,
  0x00, 0x00, 0x00, 0x00, 0x00, 0x00, 0x00, 0x00, 0x00, 0x00, 0x00, 0x00,
  0x00, 0x00, 0x00, 0x00, 0x00, 0x00, 0x00, 0x00, 0x00, 0x00, 0x00, 0x00,
  0x00, 0x00, 0x00, 0x00, 0x00, 0x00, 0x00, 0x00, 0x00, 0x00, 0x00, 0x00,
  0x00, 0x00, 0x00, 0x00, 0x00, 0x00, 0x00, 0x00, 0x00, 0x00, 0x00, 0x00,
  0x00, 0x00, 0x00, 0x00, 0x00, 0x00, 0x00, 0x00, 0x00, 0x00, 0x00, 0x00,
  0x00, 0x00, 0x00, 0x00, 0x00, 0x00, 0x00, 0x00, 0x00, 0x00, 0x00, 0x00,
  0x00, 0x00, 0x00, 0x00, 0x00, 0x00, 0x00, 0x00, 0x00, 0x00, 0x00, 0x00,
  0x00, 0x00, 0x00, 0x00, 0x20, 0x00, 0x00, 0x00, 0xab, 0x53, 0x4c, 0x3b,
  0x37, 0x7f, 0x88, 0x3b, 0x7d, 0x14, 0x2d, 0x3b, 0x8d, 0x39, 0x3b, 0x3b,
  0x7c, 0x24, 0x6f, 0x3b, 0x92, 0x5b, 0x38, 0x3b, 0xd8, 0x9e, 0x35, 0x3b,
  0x86, 0x7d, 0x31, 0x3b, 0x8e, 0x7c, 0x30, 0x3b, 0xff, 0x3f, 0x50, 0x3b,
  0x08, 0x0e, 0x82, 0x3b, 0x06, 0xcb, 0x93, 0x3b, 0x2f, 0x36, 0x32, 0x3b,
  0x19, 0x5a, 0x27, 0x3b, 0x05, 0x37, 0x88, 0x3b, 0x7f, 0x76, 0x5b, 0x3b,
  0x03, 0xd1, 0x3c, 0x3b, 0x36, 0xfe, 0x80, 0x3b, 0x2c, 0xe3, 0x86, 0x3b,
  0x74, 0x24, 0x46, 0x3b, 0x8a, 0x88, 0x32, 0x3b, 0x02, 0x92, 0x5c, 0x3b,
  0x26, 0xe6, 0x7a, 0x3b, 0x5a, 0x70, 0x32, 0x3b, 0xea, 0xfb, 0x80, 0x3b,
  0x87, 0x6b, 0x4c, 0x3b, 0x6b, 0x68, 0x3d, 0x3b, 0xca, 0x14, 0x45, 0x3b,
  0x9e, 0x63, 0x8c, 0x3b, 0x8d, 0xd3, 0x93, 0x3b, 0x05, 0x39, 0x13, 0x3b,
  0x30, 0xed, 0x83, 0x3b, 0x12, 0x00, 0x00, 0x00, 0x74, 0x66, 0x6c, 0x2e,
  0x70, 0x73, 0x65, 0x75, 0x64, 0x6f, 0x5f, 0x71, 0x63, 0x6f, 0x6e, 0x73,
  0x74, 0x35, 0x00, 0x00, 0x02, 0x00, 0x00, 0x00, 0x20, 0x00, 0x00, 0x00,
  0xa0, 0x00, 0x00, 0x00, 0x86, 0xfa, 0xff, 0xff, 0x00, 0x00, 0x00, 0x01,
  0x14, 0x00, 0x00, 0x00, 0xa4, 0x01, 0x00, 0x00, 0x09, 0x00, 0x00, 0x00,
  0x00, 0x00, 0x00, 0x02, 0xb0, 0x01, 0x00, 0x00, 0x04, 0xfa, 0xff, 0xff,
  0x08, 0x00, 0x00, 0x00, 0x08, 0x01, 0x00, 0x00, 0x20, 0x00, 0x00, 0x00,
  0x00, 0x00, 0x00, 0x00, 0x00, 0x00, 0x00, 0x00, 0x00, 0x00, 0x00, 0x00,
  0x00, 0x00, 0x00, 0x00, 0x00, 0x00, 0x00, 0x00, 0x00, 0x00, 0x00, 0x00,
  0x00, 0x00, 0x00, 0x00, 0x00, 0x00, 0x00, 0x00, 0x00, 0x00, 0x00, 0x00,
  0x00, 0x00, 0x00, 0x00, 0x00, 0x00, 0x00, 0x00, 0x00, 0x00, 0x00, 0x00,
  0x00, 0x00, 0x00, 0x00, 0x00, 0x00, 0x00, 0x00, 0x00, 0x00, 0x00, 0x00,
  0x00, 0x00, 0x00, 0x00, 0x00, 0x00, 0x00, 0x00, 0x00, 0x00, 0x00, 0x00,
  0x00, 0x00, 0x00, 0x00, 0x00, 0x00, 0x00, 0x00, 0x00, 0x00, 0x00, 0x00,
  0x00, 0x00, 0x00, 0x00, 0x00, 0x00, 0x00, 0x00, 0x00, 0x00, 0x00, 0x00,
  0x00, 0x00, 0x00, 0x00, 0x00, 0x00, 0x00, 0x00, 0x00, 0x00, 0x00, 0x00,
  0x00, 0x00, 0x00, 0x00, 0x00, 0x00, 0x00, 0x00, 0x00, 0x00, 0x00, 0x00,
  0x00, 0x00, 0x00, 0x00, 0x00, 0x00, 0x00, 0x00, 0x00, 0x00, 0x00, 0x00,
  0x00, 0x00, 0x00, 0x00, 0x00, 0x00, 0x00, 0x00, 0x00, 0x00, 0x00, 0x00,
  0x00, 0x00, 0x00, 0x00, 0x00, 0x00, 0x00, 0x00, 0x00, 0x00, 0x00, 0x00,
  0x00, 0x00, 0x00, 0x00, 0x00, 0x00, 0x00, 0x00, 0x00, 0x00, 0x00, 0x00,
  0x00, 0x00, 0x00, 0x00, 0x00, 0x00, 0x00, 0x00, 0x00, 0x00, 0x00, 0x00,
  0x00, 0x00, 0x00, 0x00, 0x00, 0x00, 0x00, 0x00, 0x00, 0x00, 0x00, 0x00,
  0x00, 0x00, 0x00, 0x00, 0x00, 0x00, 0x00, 0x00, 0x00, 0x00, 0x00, 0x00,
  0x00, 0x00, 0x00, 0x00, 0x00, 0x00, 0x00, 0x00, 0x00, 0x00, 0x00, 0x00,
  0x00, 0x00, 0x00, 0x00, 0x00, 0x00, 0x00, 0x00, 0x00, 0x00, 0x00, 0x00,
  0x00, 0x00, 0x00, 0x00, 0x00, 0x00, 0x00, 0x00, 0x00, 0x00, 0x00, 0x00,
  0x00, 0x00, 0x00, 0x00, 0x00, 0x00, 0x00, 0x00, 0x00, 0x00, 0x00, 0x00,
  0x00, 0x00, 0x00, 0x00, 0x20, 0x00, 0x00, 0x00, 0xe2, 0x53, 0xf1, 0x38,
  0xf6, 0x36, 0x21, 0x39, 0x29, 0x6c, 0xcc, 0x38, 0xf3, 0x20, 0xdd, 0x38,
  0x58, 0x39, 0x0d, 0x39, 0x0e, 0xbe, 0xd9, 0x38, 0x6f, 0x82, 0xd6, 0x38,
  0xa6, 0xa1, 0xd1, 0x38, 0x25, 0x72, 0xd0, 0x38, 0x15, 0xf6, 0xf5, 0x38,
  0x22, 0x9b, 0x19, 0x39, 0x70, 0x8e, 0x2e, 0x39, 0xbf, 0x7b, 0xd2, 0x38,
  0x3a, 0xa8, 0xc5, 0x38, 0xb1, 0xe1, 0x20, 0x39, 0x32, 0x9a, 0x01, 0x39,
  0x32, 0x02, 0xdf, 0x38, 0x17, 0x5a, 0x18, 0x39, 0x4d, 0x50, 0x1f, 0x39,
  0xf8, 0x05, 0xea, 0x38, 0x04, 0xdd, 0xd2, 0x38, 0x9f, 0x41, 0x02, 0x39,
  0xaf, 0x2a, 0x14, 0x39, 0x73, 0xc0, 0xd2, 0x38, 0x60, 0x57, 0x18, 0x39,
  0x10, 0x70, 0xf1, 0x38, 0x05, 0xb5, 0xdf, 0x38, 0x1c, 0xc5, 0xe8, 0x38,
  0xcc, 0xcf, 0x25, 0x39, 0x82, 0x98, 0x2e, 0x39, 0xfe, 0xe1, 0xad, 0x38,
  0x0f, 0xd1, 0x1b, 0x39, 0x12, 0x00, 0x00, 0x00, 0x74, 0x66, 0x6c, 0x2e,
  0x70, 0x73, 0x65, 0x75, 0x64, 0x6f, 0x5f, 0x71, 0x63, 0x6f, 0x6e, 0x73,
  0x74, 0x34, 0x00, 0x00, 0x01, 0x00, 0x00, 0x00, 0x20, 0x00, 0x00, 0x00,
  0x56, 0xfc, 0xff, 0xff, 0x00, 0x00, 0x00, 0x01, 0x14, 0x00, 0x00, 0x00,
  0xe8, 0x00, 0x00, 0x00, 0x08, 0x00, 0x00, 0x00, 0x00, 0x00, 0x00, 0x09,
  0xf4, 0x00, 0x00, 0x00, 0xd4, 0xfb, 0xff, 0xff, 0x08, 0x00, 0x00, 0x00,
  0x8c, 0x00, 0x00, 0x00, 0x10, 0x00, 0x00, 0x00, 0x00, 0x00, 0x00, 0x00,
  0x00, 0x00, 0x00, 0x00, 0x00, 0x00, 0x00, 0x00, 0x00, 0x00, 0x00, 0x00,
  0x00, 0x00, 0x00, 0x00, 0x00, 0x00, 0x00, 0x00, 0x00, 0x00, 0x00, 0x00,
  0x00, 0x00, 0x00, 0x00, 0x00, 0x00, 0x00, 0x00, 0x00, 0x00, 0x00, 0x00,
  0x00, 0x00, 0x00, 0x00, 0x00, 0x00, 0x00, 0x00, 0x00, 0x00, 0x00, 0x00,
  0x00, 0x00, 0x00, 0x00, 0x00, 0x00, 0x00, 0x00, 0x00, 0x00, 0x00, 0x00,
  0x00, 0x00, 0x00, 0x00, 0x00, 0x00, 0x00, 0x00, 0x00, 0x00, 0x00, 0x00,
  0x00, 0x00, 0x00, 0x00, 0x00, 0x00, 0x00, 0x00, 0x00, 0x00, 0x00, 0x00,
  0x00, 0x00, 0x00, 0x00, 0x00, 0x00, 0x00, 0x00, 0x00, 0x00, 0x00, 0x00,
  0x00, 0x00, 0x00, 0x00, 0x00, 0x00, 0x00, 0x00, 0x00, 0x00, 0x00, 0x00,
  0x00, 0x00, 0x00, 0x00, 0x00, 0x00, 0x00, 0x00, 0x00, 0x00, 0x00, 0x00,
  0x00, 0x00, 0x00, 0x00, 0x00, 0x00, 0x00, 0x00, 0x10, 0x00, 0x00, 0x00,
  0x15, 0x11, 0x85, 0x3b, 0x8b, 0x53, 0xa7, 0x3b, 0x4e, 0xe5, 0xae, 0x3b,
  0x96, 0x45, 0x61, 0x3b, 0x62, 0xf3, 0x9d, 0x3b, 0x29, 0xb5, 0x2a, 0x3c,
  0x11, 0x5a, 0x86, 0x3b, 0x77, 0xe1, 0x75, 0x3b, 0x0f, 0x93, 0xa1, 0x3b,
  0xe9, 0x49, 0x88, 0x3b, 0xf0, 0xe4, 0x5d, 0x3b, 0xf9, 0x39, 0xb2, 0x3b,
  0x9f, 0x10, 0x84, 0x3b, 0x81, 0xe9, 0x8b, 0x3b, 0xa5, 0xb8, 0xac, 0x3b,
  0x46, 0x0d, 0x99, 0x3b, 0x12, 0x00, 0x00, 0x00, 0x74, 0x66, 0x6c, 0x2e,
  0x70, 0x73, 0x65, 0x75, 0x64, 0x6f, 0x5f, 0x71, 0x63, 0x6f, 0x6e, 0x73,
  0x74, 0x33, 0x00, 0x00, 0x02, 0x00, 0x00, 0x00, 0x10, 0x00, 0x00, 0x00,
  0x20, 0x00, 0x00, 0x00, 0x6e, 0xfd, 0xff, 0xff, 0x00, 0x00, 0x00, 0x01,
  0x14, 0x00, 0x00, 0x00, 0xe4, 0x00, 0x00, 0x00, 0x07, 0x00, 0x00, 0x00,
  0x00, 0x00, 0x00, 0x02, 0xf0, 0x00, 0x00, 0x00, 0xec, 0xfc, 0xff, 0xff,
  0x08, 0x00, 0x00, 0x00, 0x88, 0x00, 0x00, 0x00, 0x10, 0x00, 0x00, 0x00,
  0x00, 0x00, 0x00, 0x00, 0x00, 0x00, 0x00, 0x00, 0x00, 0x00, 0x00, 0x00,
  0x00, 0x00, 0x00, 0x00, 0x00, 0x00, 0x00, 0x00, 0x00, 0x00, 0x00, 0x00,
  0x00, 0x00, 0x00, 0x00, 0x00, 0x00, 0x00, 0x00, 0x00, 0x00, 0x00, 0x00,
  0x00, 0x00, 0x00, 0x00, 0x00, 0x00, 0x00, 0x00, 0x00, 0x00, 0x00, 0x00,
  0x00, 0x00, 0x00, 0x00, 0x00, 0x00, 0x00, 0x00, 0x00, 0x00, 0x00, 0x00,
  0x00, 0x00, 0x00, 0x00, 0x00, 0x00, 0x00, 0x00, 0x00, 0x00, 0x00, 0x00,
  0x00, 0x00, 0x00, 0x00, 0x00, 0x00, 0x00, 0x00, 0x00, 0x00, 0x00, 0x00,
  0x00, 0x00, 0x00, 0x00, 0x00, 0x00, 0x00, 0x00, 0x00, 0x00, 0x00, 0x00,
  0x00, 0x00, 0x00, 0x00, 0x00, 0x00, 0x00, 0x00, 0x00, 0x00, 0x00, 0x00,
  0x00, 0x00, 0x00, 0x00, 0x00, 0x00, 0x00, 0x00, 0x00, 0x00, 0x00, 0x00,
  0x00, 0x00, 0x00, 0x00, 0x00, 0x00, 0x00, 0x00, 0x10, 0x00, 0x00, 0x00,
  0xa8, 0x03, 0xec, 0x39, 0xb5, 0x63, 0x14, 0x3a, 0x2b, 0x1a, 0x1b, 0x3a,
  0xef, 0xc6, 0xc7, 0x39, 0x2f, 0x13, 0x0c, 0x3a, 0x5c, 0x63, 0x97, 0x3a,
  0x29, 0x4b, 0xee, 0x39, 0xba, 0x0d, 0xda, 0x39, 0xdf, 0x49, 0x0f, 0x3a,
  0x9e, 0xba, 0xf1, 0x39, 0x24, 0xc8, 0xc4, 0x39, 0x56, 0x0e, 0x1e, 0x3a,
  0xc9, 0x3c, 0xea, 0x39, 0xd8, 0x27, 0xf8, 0x39, 0x82, 0x2c, 0x19, 0x3a,
  0x01, 0xbb, 0x07, 0x3a, 0x12, 0x00, 0x00, 0x00, 0x74, 0x66, 0x6c, 0x2e,
  0x70, 0x73, 0x65, 0x75, 0x64, 0x6f, 0x5f, 0x71, 0x63, 0x6f, 0x6e, 0x73,
  0x74, 0x32, 0x00, 0x00, 0x01, 0x00, 0x00, 0x00, 0x10, 0x00, 0x00, 0x00,
  0x7e, 0xfe, 0xff, 0xff, 0x00, 0x00, 0x00, 0x01, 0x14, 0x00, 0x00, 0x00,
  0x58, 0x00, 0x00, 0x00, 0x06, 0x00, 0x00, 0x00, 0x00, 0x00, 0x00, 0x09,
  0x64, 0x00, 0x00, 0x00, 0xfc, 0xfd, 0xff, 0xff, 0x08, 0x00, 0x00, 0x00,
  0x2c, 0x00, 0x00, 0x00, 0x04, 0x00, 0x00, 0x00, 0x00, 0x00, 0x00, 0x00,
  0x00, 0x00, 0x00, 0x00, 0x00, 0x00, 0x00, 0x00, 0x00, 0x00, 0x00, 0x00,
  0x00, 0x00, 0x00, 0x00, 0x00, 0x00, 0x00, 0x00, 0x00, 0x00, 0x00, 0x00,
  0x00, 0x00, 0x00, 0x00, 0x00, 0x00, 0x00, 0x00, 0x04, 0x00, 0x00, 0x00,
  0x84, 0x3f, 0xc5, 0x3b, 0xab, 0xb5, 0x16, 0x3c, 0x93, 0xf0, 0x46, 0x3c,
  0xbb, 0x7c, 0xea, 0x3b, 0x12, 0x00, 0x00, 0x00, 0x74, 0x66, 0x6c, 0x2e,
  0x70, 0x73, 0x65, 0x75, 0x64, 0x6f, 0x5f, 0x71, 0x63, 0x6f, 0x6e, 0x73,
  0x74, 0x31, 0x00, 0x00, 0x02, 0x00, 0x00, 0x00, 0x04, 0x00, 0x00, 0x00,
  0x10, 0x00, 0x00, 0x00, 0x06, 0xff, 0xff, 0xff, 0x00, 0x00, 0x00, 0x01,
  0x14, 0x00, 0x00, 0x00, 0x58, 0x00, 0x00, 0x00, 0x05, 0x00, 0x00, 0x00,
  0x00, 0x00, 0x00, 0x02, 0x64, 0x00, 0x00, 0x00, 0x84, 0xfe, 0xff, 0xff,
  0x08, 0x00, 0x00, 0x00, 0x2c, 0x00, 0x00, 0x00, 0x04, 0x00, 0x00, 0x00,
  0x00, 0x00, 0x00, 0x00, 0x00, 0x00, 0x00, 0x00, 0x00, 0x00, 0x00, 0x00,
  0x00, 0x00, 0x00, 0x00, 0x00, 0x00, 0x00, 0x00, 0x00, 0x00, 0x00, 0x00,
  0x00, 0x00, 0x00, 0x00, 0x00, 0x00, 0x00, 0x00, 0x00, 0x00, 0x00, 0x00,
  0x04, 0x00, 0x00, 0x00, 0xf3, 0x6d, 0x25, 0x3a, 0xe9, 0xcb, 0x7c, 0x3a,
  0x26, 0xd9, 0xa6, 0x3a, 0x55, 0xa9, 0x44, 0x3a, 0x11, 0x00, 0x00, 0x00,
  0x74, 0x66, 0x6c, 0x2e, 0x70, 0x73, 0x65, 0x75, 0x64, 0x6f, 0x5f, 0x71,
  0x63, 0x6f, 0x6e, 0x73, 0x74, 0x00, 0x00, 0x00, 0x01, 0x00, 0x00, 0x00,
  0x04, 0x00, 0x00, 0x00, 0x8a, 0xff, 0xff, 0xff, 0x00, 0x00, 0x00, 0x01,
  0x14, 0x00, 0x00, 0x00, 0x14, 0x00, 0x00, 0x00, 0x04, 0x00, 0x00, 0x00,
  0x00, 0x00, 0x00, 0x02, 0x1c, 0x00, 0x00, 0x00, 0x74, 0xff, 0xff, 0xff,
  0x0f, 0x00, 0x00, 0x00, 0x61, 0x72, 0x69, 0x74, 0x68, 0x2e, 0x63, 0x6f,
  0x6e, 0x73, 0x74, 0x61, 0x6e, 0x74, 0x32, 0x00, 0x00, 0x00, 0x00, 0x00,
  0xc2, 0xff, 0xff, 0xff, 0x00, 0x00, 0x00, 0x01, 0x14, 0x00, 0x00, 0x00,
  0x14, 0x00, 0x00, 0x00, 0x03, 0x00, 0x00, 0x00, 0x00, 0x00, 0x00, 0x02,
  0x1c, 0x00, 0x00, 0x00, 0xac, 0xff, 0xff, 0xff, 0x0f, 0x00, 0x00, 0x00,
  0x61, 0x72, 0x69, 0x74, 0x68, 0x2e, 0x63, 0x6f, 0x6e, 0x73, 0x74, 0x61,
  0x6e, 0x74, 0x31, 0x00, 0x01, 0x00, 0x00, 0x00, 0x01, 0x00, 0x00, 0x00,
  0x00, 0x00, 0x16, 0x00, 0x1c, 0x00, 0x18, 0x00, 0x17, 0x00, 0x10, 0x00,
  0x0c, 0x00, 0x08, 0x00, 0x00, 0x00, 0x00, 0x00, 0x00, 0x00, 0x07, 0x00,
  0x16, 0x00, 0x00, 0x00, 0x00, 0x00, 0x00, 0x01, 0x18, 0x00, 0x00, 0x00,
  0x18, 0x00, 0x00, 0x00, 0x02, 0x00, 0x00, 0x00, 0x00, 0x00, 0x00, 0x02,
  0x20, 0x00, 0x00, 0x00, 0x04, 0x00, 0x04, 0x00, 0x04, 0x00, 0x00, 0x00,
  0x0e, 0x00, 0x00, 0x00, 0x61, 0x72, 0x69, 0x74, 0x68, 0x2e, 0x63, 0x6f,
  0x6e, 0x73, 0x74, 0x61, 0x6e, 0x74, 0x00, 0x00, 0x01, 0x00, 0x00, 0x00,
  0x01, 0x00, 0x00, 0x00, 0x00, 0x00, 0x16, 0x00, 0x20, 0x00, 0x1c, 0x00,
  0x1b, 0x00, 0x14, 0x00, 0x10, 0x00, 0x0c, 0x00, 0x00, 0x00, 0x00, 0x00,
  0x08, 0x00, 0x07, 0x00, 0x16, 0x00, 0x00, 0x00, 0x00, 0x00, 0x00, 0x01,
  0x18, 0x00, 0x00, 0x00, 0x30, 0x00, 0x00, 0x00, 0x4c, 0x00, 0x00, 0x00,
  0x01, 0x00, 0x00, 0x00, 0x00, 0x00, 0x00, 0x09, 0x64, 0x00, 0x00, 0x00,
  0x03, 0x00, 0x00, 0x00, 0xff, 0xff, 0xff, 0xff, 0x28, 0x00, 0x00, 0x00,
  0x04, 0x00, 0x00, 0x00, 0x0c, 0x00, 0x0c, 0x00, 0x00, 0x00, 0x00, 0x00,
  0x08, 0x00, 0x04, 0x00, 0x0c, 0x00, 0x00, 0x00, 0x08, 0x00, 0x00, 0x00,
  0x10, 0x00, 0x00, 0x00, 0x01, 0x00, 0x00, 0x00, 0xee, 0xff, 0xff, 0xff,
  0xff, 0xff, 0xff, 0xff, 0x01, 0x00, 0x00, 0x00, 0xd8, 0x2d, 0x17, 0x3d,
  0x1e, 0x00, 0x00, 0x00, 0x73, 0x65, 0x72, 0x76, 0x69, 0x6e, 0x67, 0x5f,
  0x64, 0x65, 0x66, 0x61, 0x75, 0x6c, 0x74, 0x5f, 0x6b, 0x65, 0x72, 0x61,
  0x73, 0x5f, 0x74, 0x65, 0x6e, 0x73, 0x6f, 0x72, 0x3a, 0x30, 0x00, 0x00,
  0x03, 0x00, 0x00, 0x00, 0x01, 0x00, 0x00, 0x00, 0x28, 0x00, 0x00, 0x00,
  0x04, 0x00, 0x00, 0x00, 0x06, 0x00, 0x00, 0x00, 0x74, 0x00, 0x00, 0x00,
  0x58, 0x00, 0x00, 0x00, 0x48, 0x00, 0x00, 0x00, 0x38, 0x00, 0x00, 0x00,
  0x24, 0x00, 0x00, 0x00, 0x04, 0x00, 0x00, 0x00, 0xf0, 0xff, 0xff, 0xff,
  0x19, 0x00, 0x00, 0x00, 0x02, 0x00, 0x00, 0x00, 0x00, 0x00, 0x00, 0x19,
  0x0c, 0x00, 0x10, 0x00, 0x0f, 0x00, 0x00, 0x00, 0x08, 0x00, 0x04, 0x00,
  0x0c, 0x00, 0x00, 0x00, 0x09, 0x00, 0x00, 0x00, 0x04, 0x00, 0x00, 0x00,
  0x00, 0x00, 0x00, 0x09, 0xdc, 0xff, 0xff, 0xff, 0x16, 0x00, 0x00, 0x00,
  0x00, 0x00, 0x00, 0x16, 0xe8, 0xff, 0xff, 0xff, 0x53, 0x00, 0x00, 0x00,
  0x00, 0x00, 0x00, 0x53, 0xf4, 0xff, 0xff, 0xff, 0x2d, 0x00, 0x00, 0x00,
  0x00, 0x00, 0x00, 0x2d, 0x0c, 0x00, 0x0c, 0x00, 0x0b, 0x00, 0x00, 0x00,
  0x00, 0x00, 0x04, 0x00, 0x0c, 0x00, 0x00, 0x00, 0x4d, 0x00, 0x00, 0x00,
  0x00, 0x00, 0x00, 0x4d
};
const unsigned int g_model_len = 10600;
